{
  "version": "1.0",
  "truncation": null,
  "padding": null,
  "added_tokens": [
    {
      "id": 0,
      "content": "[PAD]",
      "single_word": false,
      "lstrip": false,
      "rstrip": false,
      "normalized": false,
      "special": true
    },
    {
      "id": 1,
      "content": "[UNK]",
      "single_word": false,
      "lstrip": false,
      "rstrip": false,
      "normalized": false,
      "special": true
    }
  ],
  "normalizer": {
    "type": "Sequence",
    "normalizers": [
      {
        "type": "NFD"
      },
      {
        "type": "Lowercase"
      },
      {
        "type": "StripAccents"
      }
    ]
  },
  "pre_tokenizer": {
    "type": "Whitespace"
  },
  "post_processor": {
    "type": "TemplateProcessing",
    "single": [
      {
        "Sequence": {
          "id": "A",
          "type_id": 0
        }
      }
    ],
    "pair": [
      {
        "Sequence": {
          "id": "A",
          "type_id": 0
        }
      },
      {
        "Sequence": {
          "id": "B",
          "type_id": 0
        }
      }
    ],
    "special_tokens": {
      "[PAD]": {
        "id": "[PAD]",
        "ids": [
          0
        ],
        "tokens": [
          "[PAD]"
        ]
      },
      "[UNK]": {
        "id": "[UNK]",
        "ids": [
          1
        ],
        "tokens": [
          "[UNK]"
        ]
      }
    }
  },
  "decoder": null,
  "model": {
    "type": "BPE",
    "dropout": null,
    "unk_token": "[UNK]",
    "continuing_subword_prefix": null,
    "end_of_word_suffix": null,
    "fuse_unk": false,
    "byte_fallback": false,
    "ignore_merges": false,
    "vocab": {
      "[PAD]": 0,
      "[UNK]": 1,
      "*": 2,
      "+": 3,
      "0": 4,
      "1": 5,
      "2": 6,
      "3": 7,
      "4": 8,
      "5": 9,
      "6": 10,
      "7": 11,
      "8": 12,
      "9": 13,
      "_": 14,
      "a": 15,
      "b": 16,
      "c": 17,
      "d": 18,
      "e": 19,
      "f": 20,
      "g": 21,
      "h": 22,
      "i": 23,
      "j": 24,
      "k": 25,
      "l": 26,
      "m": 27,
      "n": 28,
      "o": 29,
      "p": 30,
      "q": 31,
      "r": 32,
      "s": 33,
      "t": 34,
      "u": 35,
      "v": 36,
      "w": 37,
      "x": 38,
      "y": 39,
      "z": 40,
      "�": 41,
      "le": 42,
      "re": 43,
      "te": 44,
      "an": 45,
      "de": 46,
      "on": 47,
      "is": 48,
      "ou": 49,
      "en": 50,
      "in": 51,
      "er": 52,
      "la": 53,
      "cm": 54,
      "ble": 55,
      "ta": 56,
      "ir": 57,
      "ch": 58,
      "me": 59,
      "or": 60,
      "se": 61,
      "ma": 62,
      "ge": 63,
      "et": 64,
      "au": 65,
      "ti": 66,
      "li": 67,
      "ve": 68,
      "ur": 69,
      "ar": 70,
      "0x": 71,
      "es": 72,
      "00": 73,
      "oir": 74,
      "lan": 75,
      "co": 76,
      "si": 77,
      "qu": 78,
      "mo": 79,
      "ave": 80,
      "il": 81,
      "blan": 82,
      "ro": 83,
      "blanc": 84,
      "que": 85,
      "mi": 86,
      "al": 87,
      "gr": 88,
      "ne": 89,
      "our": 90,
      "ri": 91,
      "las": 92,
      "avec": 93,
      "ure": 94,
      "ire": 95,
      "ap": 96,
      "sse": 97,
      "bo": 98,
      "noir": 99,
      "lo": 100,
      "200": 101,
      "table": 102,
      "mate": 103,
      "ver": 104,
      "matelas": 105,
      "mp": 106,
      "ac": 107,
      "lit": 108,
      "so": 109,
      "gris": 110,
      "ent": 111,
      "90": 112,
      "ca": 113,
      "ba": 114,
      "cou": 115,
      "14": 116,
      "con": 117,
      "su": 118,
      "ie": 119,
      "cha": 120,
      "res": 121,
      "ine": 122,
      "ran": 123,
      "60": 124,
      "can": 125,
      "ousse": 126,
      "st": 127,
      "ant": 128,
      "por": 129,
      "for": 130,
      "po": 131,
      "ment": 132,
      "ff": 133,
      "20": 134,
      "cu": 135,
      "bois": 136,
      "teur": 137,
      "vi": 138,
      "pour": 139,
      "ce": 140,
      "tes": 141,
      "0x1": 142,
      "meu": 143,
      "meuble": 144,
      "tion": 145,
      "be": 146,
      "pa": 147,
      "iroir": 148,
      "0x200": 149,
      "ra": 150,
      "ang": 151,
      "pla": 152,
      "sal": 153,
      "che": 154,
      "ss": 155,
      "lu": 156,
      "moire": 157,
      "chais": 158,
      "it": 159,
      "tal": 160,
      "par": 161,
      "din": 162,
      "pe": 163,
      "da": 164,
      "lot": 165,
      "di": 166,
      "range": 167,
      "tage": 168,
      "at": 169,
      "tis": 170,
      "tiroir": 171,
      "40": 172,
      "80": 173,
      "rangement": 174,
      "ct": 175,
      "0x190": 176,
      "mb": 177,
      "10": 178,
      "bure": 179,
      "mode": 180,
      "bureau": 181,
      "12": 182,
      "to": 183,
      "som": 184,
      "50": 185,
      "16": 186,
      "ni": 187,
      "sp": 188,
      "du": 189,
      "ille": 190,
      "mier": 191,
      "ces": 192,
      "sommier": 193,
      "sa": 194,
      "metal": 195,
      "pie": 196,
      "va": 197,
      "ot": 198,
      "housse": 199,
      "tissu": 200,
      "gn": 201,
      "pis": 202,
      "aute": 203,
      "30": 204,
      "son": 205,
      "ape": 206,
      "lle": 207,
      "tapis": 208,
      "ton": 209,
      "ron": 210,
      "fi": 211,
      "ette": 212,
      "ts": 213,
      "desi": 214,
      "etage": 215,
      "memoire": 216,
      "ier": 217,
      "rou": 218,
      "forme": 219,
      "ul": 220,
      "tex": 221,
      "design": 222,
      "lin": 223,
      "canape": 224,
      "tiroirs": 225,
      "mousse": 226,
      "140": 227,
      "bi": 228,
      "pied": 229,
      "mar": 230,
      "rie": 231,
      "ga": 232,
      "per": 233,
      "100": 234,
      "fon": 235,
      "tv": 236,
      "bleu": 237,
      "ora": 238,
      "bou": 239,
      "yle": 240,
      "era": 241,
      "xl": 242,
      "go": 243,
      "scan": 244,
      "able": 245,
      "salle": 246,
      "dou": 247,
      "ho": 248,
      "scandin": 249,
      "cla": 250,
      "tre": 251,
      "salon": 252,
      "18": 253,
      "pro": 254,
      "scandinave": 255,
      "cuis": 256,
      "do": 257,
      "chaises": 258,
      "chaise": 259,
      "uil": 260,
      "bar": 261,
      "enf": 262,
      "style": 263,
      "leur": 264,
      "enfant": 265,
      "70": 266,
      "led": 267,
      "faute": 268,
      "fauteuil": 269,
      "fer": 270,
      "let": 271,
      "isse": 272,
      "angle": 273,
      "ction": 274,
      "places": 275,
      "aux": 276,
      "ite": 277,
      "hau": 278,
      "no": 279,
      "zon": 280,
      "ex": 281,
      "15": 282,
      "porte": 283,
      "coton": 284,
      "bu": 285,
      "vida": 286,
      "man": 287,
      "ches": 288,
      "ste": 289,
      "chau": 290,
      "he": 291,
      "vidaxl": 292,
      "tique": 293,
      "min": 294,
      "confor": 295,
      "ulti": 296,
      "mur": 297,
      "multi": 298,
      "com": 299,
      "car": 300,
      "dre": 301,
      "les": 302,
      "ssi": 303,
      "13": 304,
      "ele": 305,
      "couette": 306,
      "rne": 307,
      "zones": 308,
      "ferme": 309,
      "mang": 310,
      "armoire": 311,
      "ense": 312,
      "portes": 313,
      "pieds": 314,
      "confort": 315,
      "kg": 316,
      "0x2": 317,
      "col": 318,
      "140x190": 319,
      "fil": 320,
      "ffet": 321,
      "mble": 322,
      "moderne": 323,
      "br": 324,
      "ensemble": 325,
      "etagere": 326,
      "nat": 327,
      "manger": 328,
      "sion": 329,
      "tible": 330,
      "mic": 331,
      "ise": 332,
      "basse": 333,
      "couleur": 334,
      "vel": 335,
      "gi": 336,
      "age": 337,
      "lat": 338,
      "mat": 339,
      "120": 340,
      "us": 341,
      "160": 342,
      "cuisine": 343,
      "ale": 344,
      "ban": 345,
      "coff": 346,
      "ore": 347,
      "conver": 348,
      "ly": 349,
      "ours": 350,
      "temp": 351,
      "eu": 352,
      "pan": 353,
      "lable": 354,
      "pli": 355,
      "coffre": 356,
      "hauteur": 357,
      "vo": 358,
      "clair": 359,
      "ad": 360,
      "ino": 361,
      "convertible": 362,
      "ke": 363,
      "velours": 364,
      "epa": 365,
      "inte": 366,
      "mbre": 367,
      "160x200": 368,
      "rique": 369,
      "laire": 370,
      "nature": 371,
      "pi": 372,
      "ress": 373,
      "45": 374,
      "chambre": 375,
      "ing": 376,
      "pou": 377,
      "san": 378,
      "elect": 379,
      "tra": 380,
      "acier": 381,
      "isseur": 382,
      "contemp": 383,
      "sur": 384,
      "vert": 385,
      "contempora": 386,
      "mpe": 387,
      "port": 388,
      "25": 389,
      "rac": 390,
      "mique": 391,
      "rap": 392,
      "comp": 393,
      "ter": 394,
      "ateur": 395,
      "commode": 396,
      "bain": 397,
      "reg": 398,
      "sible": 399,
      "ren": 400,
      "epaisseur": 401,
      "180": 402,
      "35": 403,
      "lar": 404,
      "dec": 405,
      "190": 406,
      "xe": 407,
      "24": 408,
      "double": 409,
      "rose": 410,
      "bre": 411,
      "rouge": 412,
      "char": 413,
      "tif": 414,
      "indu": 415,
      "verre": 416,
      "ension": 417,
      "ures": 418,
      "ret": 419,
      "imp": 420,
      "iller": 421,
      "cadre": 422,
      "miroir": 423,
      "cuir": 424,
      "ser": 425,
      "th": 426,
      "dim": 427,
      "am": 428,
      "um": 429,
      "ten": 430,
      "oreiller": 431,
      "ph": 432,
      "mili": 433,
      "60cm": 434,
      "naturel": 435,
      "tec": 436,
      "ssin": 437,
      "linge": 438,
      "rect": 439,
      "lax": 440,
      "22": 441,
      "massi": 442,
      "latex": 443,
      "marron": 444,
      "vis": 445,
      "massif": 446,
      "ree": 447,
      "tabou": 448,
      "simili": 449,
      "ige": 450,
      "pin": 451,
      "lant": 452,
      "inox": 453,
      "jar": 454,
      "gan": 455,
      "ru": 456,
      "fonce": 457,
      "ref": 458,
      "micro": 459,
      "coussin": 460,
      "lattes": 461,
      "ia": 462,
      "75": 463,
      "kit": 464,
      "nes": 465,
      "parure": 466,
      "ique": 467,
      "susp": 468,
      "color": 469,
      "jardin": 470,
      "id": 471,
      "beige": 472,
      "etageres": 473,
      "one": 474,
      "chauss": 475,
      "electrique": 476,
      "drap": 477,
      "ag": 478,
      "19": 479,
      "atmo": 480,
      "bril": 481,
      "murale": 482,
      "des": 483,
      "angu": 484,
      "hera": 485,
      "int": 486,
      "atmosp": 487,
      "reglable": 488,
      "vet": 489,
      "ck": 490,
      "90x190": 491,
      "angulaire": 492,
      "atmosphera": 493,
      "sou": 494,
      "ride": 495,
      "ressor": 496,
      "pri": 497,
      "26": 498,
      "lon": 499,
      "140x200": 500,
      "rectangulaire": 501,
      "sy": 502,
      "buffet": 503,
      "mon": 504,
      "chaussures": 505,
      "bli": 506,
      "gon": 507,
      "teau": 508,
      "inc": 509,
      "ec": 510,
      "take": 511,
      "tectake": 512,
      "mini": 513,
      "blu": 514,
      "lave": 515,
      "adap": 516,
      "na": 517,
      "bat": 518,
      "ressorts": 519,
      "sole": 520,
      "chevet": 521,
      "pc": 522,
      "coloris": 523,
      "onne": 524,
      "haute": 525,
      "prote": 526,
      "240": 527,
      "max": 528,
      "uni": 529,
      "person": 530,
      "27": 531,
      "vin": 532,
      "anti": 533,
      "brillant": 534,
      "cap": 535,
      "ile": 536,
      "sup": 537,
      "contemporain": 538,
      "tran": 539,
      "ko": 540,
      "gran": 541,
      "un": 542,
      "laque": 543,
      "hd": 544,
      "ante": 545,
      "paris": 546,
      "cre": 547,
      "bibli": 548,
      "spir": 549,
      "othe": 550,
      "bibliothe": 551,
      "5x": 552,
      "ux": 553,
      "150": 554,
      "sol": 555,
      "indust": 556,
      "57": 557,
      "relax": 558,
      "pac": 559,
      "11": 560,
      "fe": 561,
      "bibliotheque": 562,
      "industrie": 563,
      "tou": 564,
      "pliable": 565,
      "use": 566,
      "nu": 567,
      "poly": 568,
      "tr": 569,
      "prix": 570,
      "chi": 571,
      "klar": 572,
      "banc": 573,
      "tement": 574,
      "fils": 575,
      "32": 576,
      "ab": 577,
      "ig": 578,
      "tele": 579,
      "chauff": 580,
      "impri": 581,
      "fonction": 582,
      "rig": 583,
      "sh": 584,
      "mm": 585,
      "erateur": 586,
      "trans": 587,
      "den": 588,
      "anth": 589,
      "bebe": 590,
      "17": 591,
      "gen": 592,
      "sans": 593,
      "gane": 594,
      "pegane": 595,
      "dro": 596,
      "refrig": 597,
      "anthrac": 598,
      "lampe": 599,
      "support": 600,
      "refrigerateur": 601,
      "anthracite": 602,
      "visco": 603,
      "jour": 604,
      "industriel": 605,
      "36": 606,
      "mer": 607,
      "00w": 608,
      "ica": 609,
      "90x200": 610,
      "ue": 611,
      "pose": 612,
      "aspir": 613,
      "lis": 614,
      "effet": 615,
      "glo": 616,
      "bas": 617,
      "mbou": 618,
      "mine": 619,
      "dis": 620,
      "38": 621,
      "2x": 622,
      "rideau": 623,
      "lus": 624,
      "ard": 625,
      "rever": 626,
      "charge": 627,
      "stein": 628,
      "klarstein": 629,
      "180x200": 630,
      "four": 631,
      "pack": 632,
      "omique": 633,
      "sta": 634,
      "lastique": 635,
      "ires": 636,
      "personnes": 637,
      "lettes": 638,
      "md": 639,
      "reversible": 640,
      "tro": 641,
      "tau": 642,
      "65": 643,
      "ergon": 644,
      "ensa": 645,
      "imprime": 646,
      "tabouret": 647,
      "76": 648,
      "nive": 649,
      "blanche": 650,
      "phone": 651,
      "sel": 652,
      "bambou": 653,
      "40x": 654,
      "hot": 655,
      "28": 656,
      "arti": 657,
      "ple": 658,
      "sie": 659,
      "ensaches": 660,
      "fac": 661,
      "55": 662,
      "pu": 663,
      "cor": 664,
      "ergonomique": 665,
      "niveaux": 666,
      "mbour": 667,
      "ol": 668,
      "taupe": 669,
      "42": 670,
      "clas": 671,
      "pen": 672,
      "sono": 673,
      "tres": 674,
      "m3": 675,
      "ok": 676,
      "suspension": 677,
      "plateau": 678,
      "antex": 679,
      "lamp": 680,
      "colo": 681,
      "giantex": 682,
      "alu": 683,
      "exten": 684,
      "mural": 685,
      "decor": 686,
      "home": 687,
      "ka": 688,
      "dimension": 689,
      "roulettes": 690,
      "sier": 691,
      "mdf": 692,
      "ber": 693,
      "vot": 694,
      "terie": 695,
      "60x": 696,
      "21": 697,
      "cle": 698,
      "bon": 699,
      "simp": 700,
      "ques": 701,
      "hu": 702,
      "sun": 703,
      "as": 704,
      "pcs": 705,
      "220": 706,
      "dimensions": 707,
      "super": 708,
      "chauffage": 709,
      "extensible": 710,
      "vintage": 711,
      "ation": 712,
      "protege": 713,
      "pouf": 714,
      "ada": 715,
      "nuit": 716,
      "lava": 717,
      "rembour": 718,
      "oe": 719,
      "iere": 720,
      "stra": 721,
      "ies": 722,
      "rome": 723,
      "dy": 724,
      "el": 725,
      "tin": 726,
      "fibre": 727,
      "300": 728,
      "hy": 729,
      "tant": 730,
      "decora": 731,
      "jeu": 732,
      "hotte": 733,
      "lage": 734,
      "sam": 735,
      "ps": 736,
      "forma": 737,
      "set": 738,
      "eto": 739,
      "bro": 740,
      "ide": 741,
      "23": 742,
      "chrome": 743,
      "pr": 744,
      "tables": 745,
      "colore": 746,
      "entree": 747,
      "lampada": 748,
      "lampadaire": 749,
      "pivot": 750,
      "ther": 751,
      "++": 752,
      "cd": 753,
      "plastique": 754,
      "sonoma": 755,
      "tu": 756,
      "gh": 757,
      "tien": 758,
      "aspirateur": 759,
      "mere": 760,
      "point": 761,
      "deco": 762,
      "jau": 763,
      "lette": 764,
      "panne": 765,
      "48": 766,
      "abat": 767,
      "sung": 768,
      "samsung": 769,
      "cli": 770,
      "ordin": 771,
      "console": 772,
      "0x240": 773,
      "ordinateur": 774,
      "plan": 775,
      "ci": 776,
      "ft": 777,
      "gle": 778,
      "pieces": 779,
      "rond": 780,
      "ronde": 781,
      "similicuir": 782,
      "fro": 783,
      "movi": 784,
      "cro": 785,
      "tte": 786,
      "douche": 787,
      "microfibre": 788,
      "usb": 789,
      "agglo": 790,
      "jaune": 791,
      "agglomere": 792,
      "mobi": 793,
      "verne": 794,
      "icaverne": 795,
      "lier": 796,
      "by": 797,
      "adapte": 798,
      "droit": 799,
      "wh": 800,
      "tation": 801,
      "blue": 802,
      "gre": 803,
      "wc": 804,
      "oth": 805,
      "grand": 806,
      "chen": 807,
      "gaz": 808,
      "contemporaine": 809,
      "modele": 810,
      "alumini": 811,
      "63": 812,
      "aluminium": 813,
      "paren": 814,
      "siege": 815,
      "cie": 816,
      "sser": 817,
      "dio": 818,
      "fa": 819,
      "net": 820,
      "tri": 821,
      "ecran": 822,
      "hi": 823,
      "hou": 824,
      "tosel": 825,
      "dul": 826,
      "colonne": 827,
      "panier": 828,
      "bet": 829,
      "cy": 830,
      "wi": 831,
      "lite": 832,
      "transparen": 833,
      "feu": 834,
      "ven": 835,
      "movible": 836,
      "amovible": 837,
      "carre": 838,
      "rets": 839,
      "tabourets": 840,
      "multifonction": 841,
      "fran": 842,
      "fin": 843,
      "chine": 844,
      "haut": 845,
      "air": 846,
      "stru": 847,
      "vaisse": 848,
      "suspen": 849,
      "ses": 850,
      "ass": 851,
      "gent": 852,
      "hr": 853,
      "men": 854,
      "110": 855,
      "couches": 856,
      "soutien": 857,
      "pet": 858,
      "sec": 859,
      "ester": 860,
      "hel": 861,
      "pap": 862,
      "appoint": 863,
      "couver": 864,
      "mes": 865,
      "29": 866,
      "eur": 867,
      "ha": 868,
      "tagere": 869,
      "inclin": 870,
      "gau": 871,
      "ld": 872,
      "59": 873,
      "elle": 874,
      "comb": 875,
      "rev": 876,
      "capit": 877,
      "argent": 878,
      "46": 879,
      "mou": 880,
      "tive": 881,
      "site": 882,
      "fo": 883,
      "enca": 884,
      "lateur": 885,
      "tile": 886,
      "beton": 887,
      "lux": 888,
      "polyester": 889,
      "ere": 890,
      "litres": 891,
      "tech": 892,
      "mics": 893,
      "noire": 894,
      "sti": 895,
      "plaque": 896,
      "adul": 897,
      "gu": 898,
      "resine": 899,
      "ty": 900,
      "maxi": 901,
      "dan": 902,
      "alle": 903,
      "ssier": 904,
      "toile": 905,
      "auto": 906,
      "260": 907,
      "taies": 908,
      "bot": 909,
      "noy": 910,
      "ris": 911,
      "dossier": 912,
      "ison": 913,
      "ssable": 914,
      "adapta": 915,
      "64": 916,
      "dehou": 917,
      "soleil": 918,
      "cture": 919,
      "taie": 920,
      "derie": 921,
      "illes": 922,
      "gmics": 923,
      "mor": 924,
      "zz": 925,
      "ets": 926,
      "vier": 927,
      "dore": 928,
      "50x": 929,
      "dehoussable": 930,
      "44": 931,
      "oc": 932,
      "colle": 933,
      "motif": 934,
      "120x": 935,
      "songmics": 936,
      "portable": 937,
      "200x200": 938,
      "belle": 939,
      "strable": 940,
      "encastrable": 941,
      "80x200": 942,
      "tan": 943,
      "5cm": 944,
      "doir": 945,
      "pho": 946,
      "fixe": 947,
      "sen": 948,
      "der": 949,
      "inclinable": 950,
      "sac": 951,
      "43": 952,
      "70x": 953,
      "ili": 954,
      "pre": 955,
      "sho": 956,
      "etique": 957,
      "120x190": 958,
      "eren": 959,
      "30x": 960,
      "ju": 961,
      "ari": 962,
      "adulte": 963,
      "mme": 964,
      "120x1": 965,
      "fermete": 966,
      "capitonne": 967,
      "iphone": 968,
      "ments": 969,
      "vaisselle": 970,
      "quette": 971,
      "vasa": 972,
      "servi": 973,
      "densite": 974,
      "cul": 975,
      "classe": 976,
      "structure": 977,
      "vasagle": 978,
      "33": 979,
      "meubles": 980,
      "barre": 981,
      "clic": 982,
      "combine": 983,
      "clac": 984,
      "induction": 985,
      "ori": 986,
      "34": 987,
      "cal": 988,
      "coque": 989,
      "penderie": 990,
      "amp": 991,
      "pat": 992,
      "shop": 993,
      "37": 994,
      "len": 995,
      "para": 996,
      "blueto": 997,
      "papier": 998,
      "cera": 999,
      "mania": 1000,
      "creme": 1001,
      "bluetooth": 1002,
      "plus": 1003,
      "top": 1004,
      "comparti": 1005,
      "os": 1006,
      "gigo": 1007,
      "jou": 1008,
      "line": 1009,
      "lex": 1010,
      "informa": 1011,
      "hello": 1012,
      "ger": 1013,
      "ic": 1014,
      "homemania": 1015,
      "informatique": 1016,
      "taille": 1017,
      "mart": 1018,
      "cuisson": 1019,
      "ster": 1020,
      "multicolore": 1021,
      "bal": 1022,
      "machine": 1023,
      "pect": 1024,
      "tisse": 1025,
      "thermo": 1026,
      "170": 1027,
      "aire": 1028,
      "ep": 1029,
      "ll": 1030,
      "ceramique": 1031,
      "poli": 1032,
      "inclus": 1033,
      "apple": 1034,
      "banquette": 1035,
      "52": 1036,
      "nier": 1037,
      "30cm": 1038,
      "exterie": 1039,
      "erme": 1040,
      "ges": 1041,
      "lits": 1042,
      "wen": 1043,
      "140x": 1044,
      "scandinaves": 1045,
      "iff": 1046,
      "mela": 1047,
      "gy": 1048,
      "jo": 1049,
      "vre": 1050,
      "igne": 1051,
      "oreillers": 1052,
      "transparent": 1053,
      "smart": 1054,
      "face": 1055,
      "protection": 1056,
      "chic": 1057,
      "98": 1058,
      "op": 1059,
      "sque": 1060,
      "memo": 1061,
      "rangements": 1062,
      "helloshop": 1063,
      "sch": 1064,
      "casa": 1065,
      "helloshop26": 1066,
      "we": 1067,
      "froid": 1068,
      "melamine": 1069,
      "cer": 1070,
      "jus": 1071,
      "poubelle": 1072,
      "gauche": 1073,
      "cue": 1074,
      "assise": 1075,
      "bac": 1076,
      "000": 1077,
      "240x2": 1078,
      "gne": 1079,
      "vers": 1080,
      "dique": 1081,
      "80cm": 1082,
      "suspendu": 1083,
      "pir": 1084,
      "ondes": 1085,
      "geur": 1086,
      "pivotant": 1087,
      "58": 1088,
      "robot": 1089,
      "aspect": 1090,
      "cale": 1091,
      "160x2": 1092,
      "galax": 1093,
      "surmatelas": 1094,
      "secur": 1095,
      "gar": 1096,
      "pres": 1097,
      "pas": 1098,
      "ry": 1099,
      "tapissier": 1100,
      "galaxy": 1101,
      "39": 1102,
      "cl": 1103,
      "metre": 1104,
      "lide": 1105,
      "luxe": 1106,
      "illets": 1107,
      "aller": 1108,
      "collection": 1109,
      "74": 1110,
      "fu": 1111,
      "mu": 1112,
      "220x240": 1113,
      "ork": 1114,
      "canard": 1115,
      "verture": 1116,
      "syste": 1117,
      "31": 1118,
      "db": 1119,
      "nel": 1120,
      "long": 1121,
      "superpose": 1122,
      "france": 1123,
      "exterieur": 1124,
      "gb": 1125,
      "77": 1126,
      "tho": 1127,
      "soft": 1128,
      "euse": 1129,
      "buy": 1130,
      "multicouches": 1131,
      "thetique": 1132,
      "ya": 1133,
      "sejour": 1134,
      "poigne": 1135,
      "place": 1136,
      "chene": 1137,
      "inde": 1138,
      "cher": 1139,
      "ettes": 1140,
      "sobuy": 1141,
      "grande": 1142,
      "simple": 1143,
      "1xe": 1144,
      "seche": 1145,
      "bout": 1146,
      "tresse": 1147,
      "enfants": 1148,
      "securite": 1149,
      "bla": 1150,
      "ki": 1151,
      "enne": 1152,
      "gel": 1153,
      "qua": 1154,
      "90cm": 1155,
      "lattex": 1156,
      "41": 1157,
      "80x": 1158,
      "fri": 1159,
      "off": 1160,
      "acces": 1161,
      "parti": 1162,
      "85": 1163,
      "rele": 1164,
      "ina": 1165,
      "gamer": 1166,
      "imi": 1167,
      "ition": 1168,
      "tor": 1169,
      "repose": 1170,
      "cules": 1171,
      "plafon": 1172,
      "trempe": 1173,
      "desser": 1174,
      "coulis": 1175,
      "pare": 1176,
      "1xe27": 1177,
      "coiff": 1178,
      "sili": 1179,
      "retro": 1180,
      "allergen": 1181,
      "accesso": 1182,
      "54": 1183,
      "teaux": 1184,
      "interie": 1185,
      "brosse": 1186,
      "adaptateur": 1187,
      "imitation": 1188,
      "win": 1189,
      "ange": 1190,
      "lavable": 1191,
      "finition": 1192,
      "ampou": 1193,
      "fron": 1194,
      "gelateur": 1195,
      "accou": 1196,
      "congelateur": 1197,
      "lumi": 1198,
      "occul": 1199,
      "90x": 1200,
      "vail": 1201,
      "riere": 1202,
      "syn": 1203,
      "wifi": 1204,
      "systeme": 1205,
      "fab": 1206,
      "od": 1207,
      "ali": 1208,
      "dress": 1209,
      "hor": 1210,
      "ion": 1211,
      "peint": 1212,
      "simpur": 1213,
      "accoudoir": 1214,
      "tour": 1215,
      "gra": 1216,
      "poallergen": 1217,
      "integre": 1218,
      "travail": 1219,
      "portant": 1220,
      "bor": 1221,
      "don": 1222,
      "poser": 1223,
      "poallergenique": 1224,
      "fit": 1225,
      "croch": 1226,
      "compartiments": 1227,
      "80x1": 1228,
      "met": 1229,
      "40cm": 1230,
      "niches": 1231,
      "oeillets": 1232,
      "47": 1233,
      "vent": 1234,
      "solide": 1235,
      "chage": 1236,
      "bes": 1237,
      "fr": 1238,
      "matris": 1239,
      "van": 1240,
      "ze": 1241,
      "sable": 1242,
      "imperme": 1243,
      "relaxation": 1244,
      "main": 1245,
      "grap": 1246,
      "ants": 1247,
      "bed": 1248,
      "coiffeuse": 1249,
      "nap": 1250,
      "neu": 1251,
      "integr": 1252,
      "cafe": 1253,
      "plat": 1254,
      "ultra": 1255,
      "marbre": 1256,
      "hypoallergenique": 1257,
      "120x170": 1258,
      "occultant": 1259,
      "250": 1260,
      "78": 1261,
      "kar": 1262,
      "ence": 1263,
      "stre": 1264,
      "pot": 1265,
      "toi": 1266,
      "boute": 1267,
      "filtre": 1268,
      "photo": 1269,
      "desserte": 1270,
      "dressing": 1271,
      "51": 1272,
      "iot": 1273,
      "modu": 1274,
      "1000": 1275,
      "hwc": 1276,
      "panneaux": 1277,
      "fur": 1278,
      "chariot": 1279,
      "decoration": 1280,
      "ja": 1281,
      "trac": 1282,
      "vc": 1283,
      "mac": 1284,
      "ming": 1285,
      "ght": 1286,
      "vio": 1287,
      "pouces": 1288,
      "cour": 1289,
      "gie": 1290,
      "sommiers": 1291,
      "45x": 1292,
      "particules": 1293,
      "wa": 1294,
      "respir": 1295,
      "pool": 1296,
      "irl": 1297,
      "mass": 1298,
      "ram": 1299,
      "dia": 1300,
      "fauteuils": 1301,
      "card": 1302,
      "volu": 1303,
      "lavabo": 1304,
      "360": 1305,
      "oly": 1306,
      "cule": 1307,
      "vable": 1308,
      "60x1": 1309,
      "chiff": 1310,
      "panneau": 1311,
      "relevable": 1312,
      "cteur": 1313,
      "comman": 1314,
      "accessoires": 1315,
      "zen": 1316,
      "plaid": 1317,
      "interieur": 1318,
      "impermeable": 1319,
      "56": 1320,
      "placard": 1321,
      "synthetique": 1322,
      "lou": 1323,
      "rideaux": 1324,
      "whirl": 1325,
      "noyer": 1326,
      "whirlpool": 1327,
      "lation": 1328,
      "cases": 1329,
      "resis": 1330,
      "lumine": 1331,
      "percale": 1332,
      "electro": 1333,
      "tements": 1334,
      "trot": 1335,
      "cent": 1336,
      "mir": 1337,
      "referen": 1338,
      "black": 1339,
      "reference": 1340,
      "130": 1341,
      "ii": 1342,
      "ocre": 1343,
      "lie": 1344,
      "gamme": 1345,
      "classi": 1346,
      "bra": 1347,
      "maison": 1348,
      "chiffon": 1349,
      "72": 1350,
      "oire": 1351,
      "paire": 1352,
      "dition": 1353,
      "nix": 1354,
      "manteau": 1355,
      "furnix": 1356,
      "mix": 1357,
      "acti": 1358,
      "panora": 1359,
      "sous": 1360,
      "feux": 1361,
      "dur": 1362,
      "sto": 1363,
      "gaming": 1364,
      "panoramique": 1365,
      "5l": 1366,
      "bin": 1367,
      "made": 1368,
      "baby": 1369,
      "rage": 1370,
      "tifie": 1371,
      "coussins": 1372,
      "230": 1373,
      "49": 1374,
      "gril": 1375,
      "chelle": 1376,
      "160x": 1377,
      "capac": 1378,
      "commande": 1379,
      "500": 1380,
      "om": 1381,
      "ortho": 1382,
      "nappe": 1383,
      "orthope": 1384,
      "book": 1385,
      "tableau": 1386,
      "sses": 1387,
      "ids": 1388,
      "68": 1389,
      "eclair": 1390,
      "isson": 1391,
      "couchage": 1392,
      "capacite": 1393,
      "eco": 1394,
      "peda": 1395,
      "128": 1396,
      "voi": 1397,
      "rembourre": 1398,
      "bosch": 1399,
      "sus": 1400,
      "vite": 1401,
      "doux": 1402,
      "offer": 1403,
      "crochets": 1404,
      "bul": 1405,
      "ima": 1406,
      "work": 1407,
      "ane": 1408,
      "50cm": 1409,
      "frontal": 1410,
      "horlo": 1411,
      "73": 1412,
      "81": 1413,
      "bis": 1414,
      "ms": 1415,
      "za": 1416,
      "appli": 1417,
      "120x200": 1418,
      "her": 1419,
      "ons": 1420,
      "lia": 1421,
      "lance": 1422,
      "20cm": 1423,
      "diam": 1424,
      "accoudoirs": 1425,
      "400": 1426,
      "fen": 1427,
      "ture": 1428,
      "gonf": 1429,
      "ecru": 1430,
      "graph": 1431,
      "voilage": 1432,
      "600": 1433,
      "hes": 1434,
      "sk": 1435,
      "vie": 1436,
      "vide": 1437,
      "barriere": 1438,
      "iseur": 1439,
      "couvercle": 1440,
      "160x230": 1441,
      "tressee": 1442,
      "equ": 1443,
      "evolu": 1444,
      "pvc": 1445,
      "lumiere": 1446,
      "neuf": 1447,
      "horloge": 1448,
      "oce": 1449,
      "vape": 1450,
      "out": 1451,
      "lique": 1452,
      "confortable": 1453,
      "pliante": 1454,
      "integrable": 1455,
      "vapeur": 1456,
      "moelle": 1457,
      "bala": 1458,
      "67": 1459,
      "80x190": 1460,
      "store": 1461,
      "eclairage": 1462,
      "95": 1463,
      "mis": 1464,
      "poignee": 1465,
      "wer": 1466,
      "ouverture": 1467,
      "niche": 1468,
      "moelleux": 1469,
      "fs": 1470,
      "esca": 1471,
      "bel": 1472,
      "cuisin": 1473,
      "hdmi": 1474,
      "tout": 1475,
      "applique": 1476,
      "61": 1477,
      "argen": 1478,
      "extra": 1479,
      "carree": 1480,
      "140x190cm": 1481,
      "comple": 1482,
      "patch": 1483,
      "bri": 1484,
      "echelle": 1485,
      "wo": 1486,
      "bahu": 1487,
      "my": 1488,
      "sw": 1489,
      "the": 1490,
      "tie": 1491,
      "sil": 1492,
      "toilette": 1493,
      "respirant": 1494,
      "complete": 1495,
      "ix": 1496,
      "jer": 1497,
      "and": 1498,
      "cook": 1499,
      "robin": 1500,
      "caisson": 1501,
      "ray": 1502,
      "bio": 1503,
      "ingle": 1504,
      "couverts": 1505,
      "53": 1506,
      "ls": 1507,
      "nor": 1508,
      "core": 1509,
      "personne": 1510,
      "decorative": 1511,
      "petit": 1512,
      "6x": 1513,
      "ds": 1514,
      "xxl": 1515,
      "ana": 1516,
      "velo": 1517,
      "mobili": 1518,
      "4k": 1519,
      "ney": 1520,
      "bonnet": 1521,
      "formable": 1522,
      "cylin": 1523,
      "wenge": 1524,
      "plafonnier": 1525,
      "bahut": 1526,
      "97": 1527,
      "hp": 1528,
      "je": 1529,
      "jac": 1530,
      "allon": 1531,
      "bere": 1532,
      "vasque": 1533,
      "serie": 1534,
      "premi": 1535,
      "olympe": 1536,
      "patchwork": 1537,
      "orange": 1538,
      "bec": 1539,
      "aspirante": 1540,
      "berbere": 1541,
      "type": 1542,
      "blo": 1543,
      "evier": 1544,
      "pra": 1545,
      "toir": 1546,
      "chargeur": 1547,
      "imprimee": 1548,
      "techno": 1549,
      "lcd": 1550,
      "tur": 1551,
      "ttes": 1552,
      "tel": 1553,
      "tablette": 1554,
      "actif": 1555,
      "135": 1556,
      "violet": 1557,
      "fie": 1558,
      "rus": 1559,
      "cho": 1560,
      "memor": 1561,
      "grise": 1562,
      "classique": 1563,
      "3x": 1564,
      "mobile": 1565,
      "gigogne": 1566,
      "coulissan": 1567,
      "bultex": 1568,
      "cuisiniere": 1569,
      "premium": 1570,
      "ergo": 1571,
      "200x2": 1572,
      "ssd": 1573,
      "ding": 1574,
      "diff": 1575,
      "140cm": 1576,
      "alese": 1577,
      "pivotante": 1578,
      "dance": 1579,
      "71": 1580,
      "bran": 1581,
      "male": 1582,
      "posi": 1583,
      "travers": 1584,
      "star": 1585,
      "traversin": 1586,
      "82": 1587,
      "aer": 1588,
      "xh": 1589,
      "blanches": 1590,
      "buste": 1591,
      "160x200cm": 1592,
      "ness": 1593,
      "flex": 1594,
      "py": 1595,
      "appare": 1596,
      "basses": 1597,
      "statique": 1598,
      "appareil": 1599,
      "70x190": 1600,
      "edition": 1601,
      "plu": 1602,
      "ental": 1603,
      "casier": 1604,
      "cone": 1605,
      "clavier": 1606,
      "brun": 1607,
      "clo": 1608,
      "flo": 1609,
      "rotin": 1610,
      "boite": 1611,
      "iture": 1612,
      "ate": 1613,
      "dres": 1614,
      "fres": 1615,
      "2000": 1616,
      "accue": 1617,
      "candy": 1618,
      "pliant": 1619,
      "compac": 1620,
      "artifi": 1621,
      "accueil": 1622,
      "dor": 1623,
      "choir": 1624,
      "sey": 1625,
      "essen": 1626,
      "conne": 1627,
      "leurs": 1628,
      "compa": 1629,
      "tente": 1630,
      "certifie": 1631,
      "technolo": 1632,
      "artificie": 1633,
      "4x": 1634,
      "87": 1635,
      "ade": 1636,
      "ml": 1637,
      "audio": 1638,
      "largeur": 1639,
      "bedding": 1640,
      "bouteilles": 1641,
      "electrolux": 1642,
      "3d": 1643,
      "62": 1644,
      "aires": 1645,
      "elastique": 1646,
      "fet": 1647,
      "enig": 1648,
      "geo": 1649,
      "liv": 1650,
      "koenig": 1651,
      "trine": 1652,
      "orthopedique": 1653,
      "hbedding": 1654,
      "oise": 1655,
      "sour": 1656,
      "ona": 1657,
      "200w": 1658,
      "beko": 1659,
      "gnes": 1660,
      "gonflable": 1661,
      "bl": 1662,
      "grille": 1663,
      "50w": 1664,
      "fix": 1665,
      "complet": 1666,
      "montage": 1667,
      "silicone": 1668,
      "eau": 1669,
      "emp": 1670,
      "70cm": 1671,
      "longue": 1672,
      "indeformable": 1673,
      "massage": 1674,
      "88": 1675,
      "langer": 1676,
      "cep": 1677,
      "rembourrage": 1678,
      "ghz": 1679,
      "evolutif": 1680,
      "92": 1681,
      "spe": 1682,
      "lecteur": 1683,
      "radio": 1684,
      "barbe": 1685,
      "memory": 1686,
      "technologie": 1687,
      "cda": 1688,
      "ova": 1689,
      "tar": 1690,
      "robuste": 1691,
      "fort": 1692,
      "ffaires": 1693,
      "five": 1694,
      "textile": 1695,
      "parasol": 1696,
      "paravent": 1697,
      "hesi": 1698,
      "cdaffaires": 1699,
      "sor": 1700,
      "nelle": 1701,
      "pain": 1702,
      "batterie": 1703,
      "disney": 1704,
      "balai": 1705,
      "ens": 1706,
      "ers": 1707,
      "illo": 1708,
      "illage": 1709,
      "dable": 1710,
      "voiture": 1711,
      "jersey": 1712,
      "84": 1713,
      "bb": 1714,
      "tee": 1715,
      "eth": 1716,
      "moy": 1717,
      "bobo": 1718,
      "phili": 1719,
      "vision": 1720,
      "telecommande": 1721,
      "bascule": 1722,
      "souris": 1723,
      "laine": 1724,
      "vitrine": 1725,
      "terra": 1726,
      "tous": 1727,
      "noyau": 1728,
      "position": 1729,
      "bobochic": 1730,
      "66": 1731,
      "deux": 1732,
      "etu": 1733,
      "force": 1734,
      "vitro": 1735,
      "toy": 1736,
      "180x": 1737,
      "capitonnee": 1738,
      "qualite": 1739,
      "ampoule": 1740,
      "modulable": 1741,
      "stock": 1742,
      "hq": 1743,
      "repas": 1744,
      "inoxy": 1745,
      "gigognes": 1746,
      "115": 1747,
      "89": 1748,
      "assi": 1749,
      "bz": 1750,
      "e27": 1751,
      "viseur": 1752,
      "illon": 1753,
      "bol": 1754,
      "pate": 1755,
      "roule": 1756,
      "eration": 1757,
      "souple": 1758,
      "robinet": 1759,
      "cylind": 1760,
      "inoxydable": 1761,
      "spa": 1762,
      "boo": 1763,
      "filaire": 1764,
      "natur": 1765,
      "coffret": 1766,
      "bains": 1767,
      "univer": 1768,
      "televiseur": 1769,
      "field": 1770,
      "79": 1771,
      "ws": 1772,
      "acari": 1773,
      "charbon": 1774,
      "rembourree": 1775,
      "jeux": 1776,
      "ider": 1777,
      "service": 1778,
      "240x220": 1779,
      "leve": 1780,
      "cadres": 1781,
      "cafet": 1782,
      "ports": 1783,
      "metallique": 1784,
      "viscoelastique": 1785,
      "icain": 1786,
      "hiver": 1787,
      "equili": 1788,
      "fes": 1789,
      "ible": 1790,
      "kids": 1791,
      "teuse": 1792,
      "160cm": 1793,
      "tringle": 1794,
      "transat": 1795,
      "offert": 1796,
      "cine": 1797,
      "lise": 1798,
      "num": 1799,
      "adhesi": 1800,
      "rectangle": 1801,
      "fabrique": 1802,
      "ak": 1803,
      "bt": 1804,
      "zo": 1805,
      "alto": 1806,
      "tablettes": 1807,
      "caban": 1808,
      "poil": 1809,
      "silver": 1810,
      "vitroceramique": 1811,
      "bil": 1812,
      "sant": 1813,
      "wat": 1814,
      "vital": 1815,
      "play": 1816,
      "otan": 1817,
      "pique": 1818,
      "smartphone": 1819,
      "fresh": 1820,
      "barbecue": 1821,
      "equilibre": 1822,
      "112": 1823,
      "ajus": 1824,
      "har": 1825,
      "ign": 1826,
      "sure": 1827,
      "wotan": 1828,
      "coul": 1829,
      "lustre": 1830,
      "bouillo": 1831,
      "zone": 1832,
      "becca": 1833,
      "dt": 1834,
      "sat": 1835,
      "tue": 1836,
      "rebecca": 1837,
      "maille": 1838,
      "auna": 1839,
      "box": 1840,
      "board": 1841,
      "camp": 1842,
      "manteaux": 1843,
      "voile": 1844,
      "droite": 1845,
      "jusqu": 1846,
      "diametre": 1847,
      "lumineux": 1848,
      "grill": 1849,
      "cafetiere": 1850,
      "210": 1851,
      "io": 1852,
      "pur": 1853,
      "red": 1854,
      "anima": 1855,
      "intisse": 1856,
      "mal": 1857,
      "45cm": 1858,
      "differen": 1859,
      "cabane": 1860,
      "69": 1861,
      "dv": 1862,
      "gant": 1863,
      "allo": 1864,
      "alpe": 1865,
      "aloe": 1866,
      "new": 1867,
      "roues": 1868,
      "bicolore": 1869,
      "185": 1870,
      "video": 1871,
      "bouilloire": 1872,
      "alpexe": 1873,
      "ama": 1874,
      "meo": 1875,
      "valet": 1876,
      "rouleur": 1877,
      "chester": 1878,
      "inos": 1879,
      "television": 1880,
      "merinos": 1881,
      "alimen": 1882,
      "resistant": 1883,
      "stockage": 1884,
      "sureleve": 1885,
      "175": 1886,
      "ggan": 1887,
      "ano": 1888,
      "livre": 1889,
      "boggan": 1890,
      "toboggan": 1891,
      "138": 1892,
      "52cm": 1893,
      "60x120": 1894,
      "91": 1895,
      "bur": 1896,
      "fm": 1897,
      "h2": 1898,
      "iles": 1899,
      "jec": 1900,
      "x2": 1901,
      "cation": 1902,
      "gique": 1903,
      "toutes": 1904,
      "+++": 1905,
      "rustique": 1906,
      "philips": 1907,
      "cave": 1908,
      "omi": 1909,
      "cache": 1910,
      "minu": 1911,
      "dream": 1912,
      "60x60": 1913,
      "nettoy": 1914,
      "ker": 1915,
      "libre": 1916,
      "quillage": 1917,
      "rale": 1918,
      "epais": 1919,
      "jute": 1920,
      "86": 1921,
      "bc": 1922,
      "flan": 1923,
      "gor": 1924,
      "lt": 1925,
      "ny": 1926,
      "issan": 1927,
      "master": 1928,
      "vesti": 1929,
      "lante": 1930,
      "acac": 1931,
      "carte": 1932,
      "intel": 1933,
      "opti": 1934,
      "7cm": 1935,
      "93": 1936,
      "une": 1937,
      "en1": 1938,
      "lait": 1939,
      "bijou": 1940,
      "suspendre": 1941,
      "automa": 1942,
      "argente": 1943,
      "ovale": 1944,
      "cire": 1945,
      "ful": 1946,
      "val": 1947,
      "mari": 1948,
      "ara": 1949,
      "lasure": 1950,
      "vera": 1951,
      "someo": 1952,
      "pompe": 1953,
      "cel": 1954,
      "100x": 1955,
      "125": 1956,
      "lina": 1957,
      "gloss": 1958,
      "disque": 1959,
      "prise": 1960,
      "venti": 1961,
      "essenti": 1962,
      "vestiaire": 1963,
      "cen": 1964,
      "fam": 1965,
      "debout": 1966,
      "stand": 1967,
      "cube": 1968,
      "vitre": 1969,
      "marine": 1970,
      "cuiseur": 1971,
      "tinette": 1972,
      "fitness": 1973,
      "compatible": 1974,
      "speci": 1975,
      "ajustable": 1976,
      "1200": 1977,
      "ea": 1978,
      "pousse": 1979,
      "teles": 1980,
      "lace": 1981,
      "light": 1982,
      "roy": 1983,
      "cam": 1984,
      "extrac": 1985,
      "armoires": 1986,
      "naturelle": 1987,
      "dessus": 1988,
      "macbook": 1989,
      "cylindrique": 1990,
      "bijoux": 1991,
      "eg": 1992,
      "ete": 1993,
      "ital": 1994,
      "tac": 1995,
      "maquillage": 1996,
      "tiere": 1997,
      "cot": 1998,
      "coco": 1999,
      "102": 2000,
      "gold": 2001,
      "douce": 2002,
      "180cm": 2003,
      "facile": 2004,
      "poufs": 2005,
      "jecteur": 2006,
      "acacia": 2007,
      "telesco": 2008,
      "65x": 2009,
      "8go": 2010,
      "dar": 2011,
      "fl": 2012,
      "fal": 2013,
      "ring": 2014,
      "pelu": 2015,
      "integ": 2016,
      "35x": 2017,
      "chiffonnier": 2018,
      "moyenne": 2019,
      "etui": 2020,
      "chesterfield": 2021,
      "flanelle": 2022,
      "automatique": 2023,
      "ales": 2024,
      "nis": 2025,
      "mag": 2026,
      "boule": 2027,
      "profes": 2028,
      "135x": 2029,
      "friteuse": 2030,
      "alimentation": 2031,
      "profession": 2032,
      "83": 2033,
      "ip": 2034,
      "mus": 2035,
      "pier": 2036,
      "mezz": 2037,
      "gram": 2038,
      "rabat": 2039,
      "pietement": 2040,
      "ampoules": 2041,
      "metrique": 2042,
      "vitesses": 2043,
      "choco": 2044,
      "royal": 2045,
      "280": 2046,
      "eff": 2047,
      "gal": 2048,
      "ice": 2049,
      "sc": 2050,
      "lande": 2051,
      "ace": 2052,
      "cable": 2053,
      "casque": 2054,
      "piscine": 2055,
      "bilite": 2056,
      "inter": 2057,
      "kitchen": 2058,
      "oline": 2059,
      "prin": 2060,
      "abattant": 2061,
      "borde": 2062,
      "pratique": 2063,
      "numer": 2064,
      "allover": 2065,
      "85x": 2066,
      "99": 2067,
      "fre": 2068,
      "nou": 2069,
      "sd": 2070,
      "low": 2071,
      "pad": 2072,
      "160x190": 2073,
      "chaud": 2074,
      "reglables": 2075,
      "paniers": 2076,
      "160x80": 2077,
      "bistrot": 2078,
      "tactile": 2079,
      "h3": 2080,
      "reve": 2081,
      "sele": 2082,
      "rota": 2083,
      "bam": 2084,
      "contin": 2085,
      "itch": 2086,
      "nique": 2087,
      "night": 2088,
      "sage": 2089,
      "noires": 2090,
      "aggy": 2091,
      "shaggy": 2092,
      "dison": 2093,
      "70x140": 2094,
      "compact": 2095,
      "poils": 2096,
      "poussette": 2097,
      "press": 2098,
      "sport": 2099,
      "tun": 2100,
      "yo": 2101,
      "ury": 2102,
      "art": 2103,
      "artis": 2104,
      "ity": 2105,
      "trepied": 2106,
      "260x240": 2107,
      "transparente": 2108,
      "presso": 2109,
      "escalier": 2110,
      "350": 2111,
      "clu": 2112,
      "pure": 2113,
      "uhd": 2114,
      "repa": 2115,
      "derap": 2116,
      "deluxe": 2117,
      "tier": 2118,
      "balance": 2119,
      "etages": 2120,
      "marche": 2121,
      "bru": 2122,
      "motifs": 2123,
      "fabri": 2124,
      "universel": 2125,
      "3m": 2126,
      "hal": 2127,
      "m2": 2128,
      "recy": 2129,
      "anine": 2130,
      "deur": 2131,
      "lade": 2132,
      "quin": 2133,
      "neo": 2134,
      "parateur": 2135,
      "fonte": 2136,
      "program": 2137,
      "pedale": 2138,
      "switch": 2139,
      "01": 2140,
      "av": 2141,
      "ner": 2142,
      "pon": 2143,
      "leo": 2144,
      "ans": 2145,
      "anne": 2146,
      "mas": 2147,
      "magn": 2148,
      "land": 2149,
      "baign": 2150,
      "hover": 2151,
      "90x190cm": 2152,
      "ocean": 2153,
      "geometrique": 2154,
      "peluche": 2155,
      "bordeaux": 2156,
      "290": 2157,
      "sim": 2158,
      "paro": 2159,
      "30l": 2160,
      "ventile": 2161,
      "140x40x": 2162,
      "futon": 2163,
      "tieres": 2164,
      "turqu": 2165,
      "actiflex": 2166,
      "mezzanine": 2167,
      "baignoire": 2168,
      "800": 2169,
      "edison": 2170,
      "fun": 2171,
      "ku": 2172,
      "reo": 2173,
      "relie": 2174,
      "indesi": 2175,
      "silen": 2176,
      "1400": 2177,
      "cui": 2178,
      "duo": 2179,
      "alex": 2180,
      "key": 2181,
      "140x200cm": 2182,
      "windo": 2183,
      "trottinette": 2184,
      "chiffonier": 2185,
      "2000w": 2186,
      "full": 2187,
      "special": 2188,
      "turquoise": 2189,
      "indesit": 2190,
      "af": 2191,
      "cles": 2192,
      "ium": 2193,
      "sau": 2194,
      "uier": 2195,
      "ines": 2196,
      "organ": 2197,
      "miti": 2198,
      "coupe": 2199,
      "ineck": 2200,
      "manguier": 2201,
      "unie": 2202,
      "ideal": 2203,
      "multifonctions": 2204,
      "livres": 2205,
      "7zones": 2206,
      "eten": 2207,
      "ivo": 2208,
      "rure": 2209,
      "coeur": 2210,
      "verti": 2211,
      "pomp": 2212,
      "culation": 2213,
      "celle": 2214,
      "mange": 2215,
      "murales": 2216,
      "sand": 2217,
      "tramp": 2218,
      "surface": 2219,
      "256": 2220,
      "telephone": 2221,
      "trio": 2222,
      "serviette": 2223,
      "1000w": 2224,
      "bella": 2225,
      "200x290": 2226,
      "pierre": 2227,
      "mitigeur": 2228,
      "5zones": 2229,
      "km": 2230,
      "ox": 2231,
      "wt": 2232,
      "ises": 2233,
      "0000": 2234,
      "grises": 2235,
      "105": 2236,
      "express": 2237,
      "amer": 2238,
      "vinyle": 2239,
      "empi": 2240,
      "dvd": 2241,
      "relief": 2242,
      "nie": 2243,
      "base": 2244,
      "couverture": 2245,
      "spring": 2246,
      "valen": 2247,
      "pace": 2248,
      "hub": 2249,
      "mobilier": 2250,
      "luxury": 2251,
      "serviettes": 2252,
      "oslo": 2253,
      "220x240cm": 2254,
      "indepen": 2255,
      "allonge": 2256,
      "coulissantes": 2257,
      "continental": 2258,
      "trampoline": 2259,
      "8cm": 2260,
      "dri": 2261,
      "epi": 2262,
      "fc": 2263,
      "fleurs": 2264,
      "tle": 2265,
      "lio": 2266,
      "145": 2267,
      "140x2": 2268,
      "power": 2269,
      "lles": 2270,
      "stereo": 2271,
      "decoratif": 2272,
      "enceinte": 2273,
      "wood": 2274,
      "laiton": 2275,
      "standard": 2276,
      "chocolat": 2277,
      "bamboo": 2278,
      "empilable": 2279,
      "gue": 2280,
      "niere": 2281,
      "rgb": 2282,
      "sle": 2283,
      "antes": 2284,
      "deuse": 2285,
      "onis": 2286,
      "ira": 2287,
      "lip": 2288,
      "illi": 2289,
      "stu": 2290,
      "paires": 2291,
      "dule": 2292,
      "1005": 2293,
      "projecteur": 2294,
      "mante": 2295,
      "musi": 2296,
      "patere": 2297,
      "acariens": 2298,
      "windows": 2299,
      "ami": 2300,
      "ed": 2301,
      "king": 2302,
      "mba": 2303,
      "x40": 2304,
      "chette": 2305,
      "materi": 2306,
      "fermetes": 2307,
      "white": 2308,
      "aertech": 2309,
      "94": 2310,
      "em": 2311,
      "i5": 2312,
      "kw": 2313,
      "pau": 2314,
      "ins": 2315,
      "aure": 2316,
      "coo": 2317,
      "klarfit": 2318,
      "clean": 2319,
      "hua": 2320,
      "tuy": 2321,
      "ciment": 2322,
      "foy": 2323,
      "integrees": 2324,
      "famille": 2325,
      "telescopique": 2326,
      "fabrication": 2327,
      "7l": 2328,
      "ame": 2329,
      "oti": 2330,
      "recharge": 2331,
      "detente": 2332,
      "ardo": 2333,
      "moteur": 2334,
      "matelasse": 2335,
      "mp3": 2336,
      "dodo": 2337,
      "elegant": 2338,
      "couleurs": 2339,
      "25cm": 2340,
      "rapide": 2341,
      "draps": 2342,
      "hdd": 2343,
      "touch": 2344,
      "plafond": 2345,
      "adhesif": 2346,
      "oceanic": 2347,
      "paroi": 2348,
      "cc": 2349,
      "dr": 2350,
      "ken": 2351,
      "sno": 2352,
      "lets": 2353,
      "tale": 2354,
      "ory": 2355,
      "grou": 2356,
      "balan": 2357,
      "chair": 2358,
      "tondeuse": 2359,
      "fique": 2360,
      "film": 2361,
      "36x": 2362,
      "corde": 2363,
      "140x70": 2364,
      "textilene": 2365,
      "issance": 2366,
      "easy": 2367,
      "asus": 2368,
      "ee": 2369,
      "gs": 2370,
      "iteur": 2371,
      "sports": 2372,
      "wn": 2373,
      "yonis": 2374,
      "orig": 2375,
      "espace": 2376,
      "rico": 2377,
      "cas": 2378,
      "passe": 2379,
      "pass": 2380,
      "radi": 2381,
      "nia": 2382,
      "ronic": 2383,
      "cartou": 2384,
      "regu": 2385,
      "mona": 2386,
      "antiderap": 2387,
      "stick": 2388,
      "wei": 2389,
      "centrale": 2390,
      "65x65": 2391,
      "ivoire": 2392,
      "materiau": 2393,
      "3l": 2394,
      "900": 2395,
      "ene": 2396,
      "licor": 2397,
      "ligne": 2398,
      "arbre": 2399,
      "12_": 2400,
      "ylene": 2401,
      "poudre": 2402,
      "nuage": 2403,
      "imprimante": 2404,
      "statue": 2405,
      "jouets": 2406,
      "joy": 2407,
      "best": 2408,
      "mixte": 2409,
      "bloc": 2410,
      "hublot": 2411,
      "sleep": 2412,
      "huawei": 2413,
      "4go": 2414,
      "ah": 2415,
      "gro": 2416,
      "oz": 2417,
      "sin": 2418,
      "ues": 2419,
      "xp": 2420,
      "cate": 2421,
      "106": 2422,
      "somme": 2423,
      "75cm": 2424,
      "plante": 2425,
      "poignees": 2426,
      "outtoir": 2427,
      "flexible": 2428,
      "positions": 2429,
      "assiette": 2430,
      "optimale": 2431,
      "musculation": 2432,
      "cuivre": 2433,
      "americain": 2434,
      "tuyau": 2435,
      "obi": 2436,
      "smi": 2437,
      "tch": 2438,
      "dell": 2439,
      "acu": 2440,
      "etoile": 2441,
      "59cm": 2442,
      "longs": 2443,
      "casiers": 2444,
      "dormir": 2445,
      "numerique": 2446,
      "repasser": 2447,
      "radiateur": 2448,
      "320": 2449,
      "aeration": 2450,
      "dal": 2451,
      "epeda": 2452,
      "lg": 2453,
      "swe": 2454,
      "spot": 2455,
      "x4": 2456,
      "enrouleur": 2457,
      "laver": 2458,
      "blen": 2459,
      "molle": 2460,
      "40w": 2461,
      "ctor": 2462,
      "vase": 2463,
      "brise": 2464,
      "series": 2465,
      "feld": 2466,
      "shar": 2467,
      "3000": 2468,
      "bouteille": 2469,
      "gorie": 2470,
      "princes": 2471,
      "ardoise": 2472,
      "categorie": 2473,
      "8kg": 2474,
      "90x1": 2475,
      "pp": 2476,
      "york": 2477,
      "isateur": 2478,
      "illas": 2479,
      "rock": 2480,
      "concep": 2481,
      "60l": 2482,
      "paillas": 2483,
      "plaques": 2484,
      "ature": 2485,
      "filet": 2486,
      "good": 2487,
      "prop": 2488,
      "155": 2489,
      "manue": 2490,
      "inten": 2491,
      "190x": 2492,
      "blum": 2493,
      "fonctionnel": 2494,
      "ciees": 2495,
      "orien": 2496,
      "balcon": 2497,
      "lumineuse": 2498,
      "mister": 2499,
      "jack": 2500,
      "connec": 2501,
      "differenciees": 2502,
      "magni": 2503,
      "independance": 2504,
      "paillasson": 2505,
      "700": 2506,
      "96": 2507,
      "sli": 2508,
      "vue": 2509,
      "tasses": 2510,
      "geant": 2511,
      "200cm": 2512,
      "cage": 2513,
      "chaleur": 2514,
      "lumin": 2515,
      "dual": 2516,
      "laquee": 2517,
      "oeko": 2518,
      "photos": 2519,
      "ethnique": 2520,
      "essentiel": 2521,
      "groupe": 2522,
      "blender": 2523,
      "feldt": 2524,
      "blumfeldt": 2525,
      "4l": 2526,
      "bres": 2527,
      "fla": 2528,
      "hz": 2529,
      "resili": 2530,
      "demi": 2531,
      "rowen": 2532,
      "aplu": 2533,
      "boi": 2534,
      "conden": 2535,
      "paraplu": 2536,
      "dien": 2537,
      "spider": 2538,
      "nova": 2539,
      "excelle": 2540,
      "stel": 2541,
      "130x190": 2542,
      "filtres": 2543,
      "raclette": 2544,
      "polyprop": 2545,
      "mesures": 2546,
      "brandt": 2547,
      "artisan": 2548,
      "foyers": 2549,
      "concept": 2550,
      "rowenta": 2551,
      "excellen": 2552,
      "polypropylene": 2553,
      "1x": 2554,
      "2en1": 2555,
      "ipad": 2556,
      "jun": 2557,
      "over": 2558,
      "mecan": 2559,
      "tic": 2560,
      "til": 2561,
      "tiques": 2562,
      "titan": 2563,
      "acer": 2564,
      "casser": 2565,
      "chat": 2566,
      "ression": 2567,
      "polaire": 2568,
      "103": 2569,
      "107": 2570,
      "dum": 2571,
      "housses": 2572,
      "domin": 2573,
      "panama": 2574,
      "90x200cm": 2575,
      "corps": 2576,
      "petite": 2577,
      "tance": 2578,
      "naturalex": 2579,
      "animaux": 2580,
      "magnetique": 2581,
      "sandman": 2582,
      "licorne": 2583,
      "molleton": 2584,
      "magnifique": 2585,
      "cassero": 2586,
      "1l": 2587,
      "2l": 2588,
      "az": 2589,
      "fra": 2590,
      "flot": 2591,
      "non": 2592,
      "sants": 2593,
      "tus": 2594,
      "ouver": 2595,
      "arc": 2596,
      "sia": 2597,
      "milan": 2598,
      "sseur": 2599,
      "care": 2600,
      "temper": 2601,
      "etoiles": 2602,
      "pression": 2603,
      "kart": 2604,
      "actimemo": 2605,
      "coulissante": 2606,
      "integree": 2607,
      "rotatif": 2608,
      "12_0000": 2609,
      "sharp": 2610,
      "02": 2611,
      "40x1": 2612,
      "bk": 2613,
      "cra": 2614,
      "im": 2615,
      "pal": 2616,
      "ral": 2617,
      "sap": 2618,
      "leon": 2619,
      "lilo": 2620,
      "ves": 2621,
      "lomba": 2622,
      "ston": 2623,
      "beille": 2624,
      "parc": 2625,
      "tonnelle": 2626,
      "miroirs": 2627,
      "serre": 2628,
      "minee": 2629,
      "station": 2630,
      "votre": 2631,
      "planche": 2632,
      "jungle": 2633,
      "900w": 2634,
      "bit": 2635,
      "cir": 2636,
      "city": 2637,
      "hs": 2638,
      "ning": 2639,
      "taire": 2640,
      "bodum": 2641,
      "cateur": 2642,
      "pop": 2643,
      "pots": 2644,
      "165": 2645,
      "illeuse": 2646,
      "gobe": 2647,
      "expresso": 2648,
      "15cm": 2649,
      "ager": 2650,
      "abby": 2651,
      "transport": 2652,
      "40x40": 2653,
      "pendule": 2654,
      "63x": 2655,
      "240x260": 2656,
      "way": 2657,
      "graphite": 2658,
      "extraction": 2659,
      "selection": 2660,
      "aqua": 2661,
      "fan": 2662,
      "jor": 2663,
      "jet": 2664,
      "ob": 2665,
      "reine": 2666,
      "late": 2667,
      "selle": 2668,
      "verres": 2669,
      "vernis": 2670,
      "plate": 2671,
      "dol": 2672,
      "1500w": 2673,
      "35cm": 2674,
      "shabby": 2675,
      "fourrure": 2676,
      "puzz": 2677,
      "fait": 2678,
      "moutar": 2679,
      "compartiment": 2680,
      "gym": 2681,
      "artificielle": 2682,
      "longueur": 2683,
      "rabattable": 2684,
      "brut": 2685,
      "passants": 2686,
      "moutarde": 2687,
      "116": 2688,
      "30x1": 2689,
      "4cm": 2690,
      "8l": 2691,
      "mil": 2692,
      "saute": 2693,
      "lena": 2694,
      "ist": 2695,
      "quet": 2696,
      "miel": 2697,
      "rio": 2698,
      "basi": 2699,
      "ludique": 2700,
      "clage": 2701,
      "baro": 2702,
      "voy": 2703,
      "lard": 2704,
      "impression": 2705,
      "55cm": 2706,
      "vaisselier": 2707,
      "mens": 2708,
      "dans": 2709,
      "mug": 2710,
      "allonges": 2711,
      "atelier": 2712,
      "artificiel": 2713,
      "nettoyeur": 2714,
      "egouttoir": 2715,
      "etendoir": 2716,
      "studio": 2717,
      "snooz": 2718,
      "origin": 2719,
      "manuel": 2720,
      "snoozing": 2721,
      "3zones": 2722,
      "550": 2723,
      "war": 2724,
      "lege": 2725,
      "deko": 2726,
      "poids": 2727,
      "0x100": 2728,
      "plateaux": 2729,
      "cheminee": 2730,
      "dage": 2731,
      "portemanteau": 2732,
      "comptoir": 2733,
      "brillance": 2734,
      "berg": 2735,
      "ciel": 2736,
      "haier": 2737,
      "sacs": 2738,
      "oriental": 2739,
      "joint": 2740,
      "rayures": 2741,
      "cloche": 2742,
      "fixation": 2743,
      "billard": 2744,
      "rechargeable": 2745,
      "lilokids": 2746,
      "20x": 2747,
      "5m": 2748,
      "55x": 2749,
      "fir": 2750,
      "uy": 2751,
      "wal": 2752,
      "ini": 2753,
      "vee": 2754,
      "veux": 2755,
      "couvre": 2756,
      "moniteur": 2757,
      "industrielle": 2758,
      "180x200cm": 2759,
      "huile": 2760,
      "prises": 2761,
      "hamac": 2762,
      "guir": 2763,
      "morpho": 2764,
      "lineaire": 2765,
      "resistance": 2766,
      "ciree": 2767,
      "douceur": 2768,
      "sweet": 2769,
      "puzzle": 2770,
      "512": 2771,
      "6l": 2772,
      "cr": 2773,
      "eva": 2774,
      "gla": 2775,
      "scul": 2776,
      "x70x": 2777,
      "actis": 2778,
      "active": 2779,
      "entra": 2780,
      "reser": 2781,
      "vita": 2782,
      "riel": 2783,
      "fond": 2784,
      "boules": 2785,
      "kel": 2786,
      "oneconcept": 2787,
      "mono": 2788,
      "150cm": 2789,
      "110x": 2790,
      "polycoton": 2791,
      "faces": 2792,
      "green": 2793,
      "hachoir": 2794,
      "foot": 2795,
      "120x40x": 2796,
      "suspendue": 2797,
      "actilatex": 2798,
      "lownia": 2799,
      "paulownia": 2800,
      "sommeil": 2801,
      "resilience": 2802,
      "sculp": 2803,
      "actisom": 2804,
      "03": 2805,
      "113": 2806,
      "5mm": 2807,
      "ao": 2808,
      "dra": 2809,
      "gres": 2810,
      "i7": 2811,
      "of": 2812,
      "pul": 2813,
      "ting": 2814,
      "vari": 2815,
      "rel": 2816,
      "andro": 2817,
      "veilleuse": 2818,
      "cheveux": 2819,
      "dic": 2820,
      "108": 2821,
      "toit": 2822,
      "ficateur": 2823,
      "novo": 2824,
      "137": 2825,
      "fermeture": 2826,
      "120cm": 2827,
      "monde": 2828,
      "montre": 2829,
      "chevets": 2830,
      "chauffant": 2831,
      "cross": 2832,
      "topper": 2833,
      "frg": 2834,
      "couloir": 2835,
      "slim": 2836,
      "condensa": 2837,
      "guirlande": 2838,
      "09": 2839,
      "dire": 2840,
      "dit": 2841,
      "fleur": 2842,
      "ky": 2843,
      "issant": 2844,
      "sechoir": 2845,
      "matiere": 2846,
      "veur": 2847,
      "neige": 2848,
      "dab": 2849,
      "mbuy": 2850,
      "16go": 2851,
      "dutch": 2852,
      "hombuy": 2853,
      "dos": 2854,
      "190cm": 2855,
      "phon": 2856,
      "capital": 2857,
      "shi": 2858,
      "superbe": 2859,
      "feuille": 2860,
      "feuilles": 2861,
      "derniere": 2862,
      "tisseur": 2863,
      "voyage": 2864,
      "04": 2865,
      "ai": 2866,
      "smo": 2867,
      "var": 2868,
      "tefal": 2869,
      "ous": 2870,
      "iner": 2871,
      "auton": 2872,
      "via": 2873,
      "100x200": 2874,
      "123": 2875,
      "electron": 2876,
      "75x": 2877,
      "agne": 2878,
      "absor": 2879,
      "50x70": 2880,
      "thermometre": 2881,
      "course": 2882,
      "ventilateur": 2883,
      "recyclage": 2884,
      "1to": 2885,
      "ala": 2886,
      "aica": 2887,
      "juni": 2888,
      "scoo": 2889,
      "tx": 2890,
      "voir": 2891,
      "ler": 2892,
      "dessin": 2893,
      "sea": 2894,
      "blanchi": 2895,
      "grat": 2896,
      "ourde": 2897,
      "appar": 2898,
      "loft": 2899,
      "logique": 2900,
      "verrou": 2901,
      "pastel": 2902,
      "chef": 2903,
      "lune": 2904,
      "101": 2905,
      "rouille": 2906,
      "vol": 2907,
      "ps4": 2908,
      "menage": 2909,
      "grade": 2910,
      "80x150": 2911,
      "graphene": 2912,
      "mastercook": 2913,
      "club": 2914,
      "hoverboard": 2915,
      "1400tr": 2916,
      "parapluie": 2917,
      "temperature": 2918,
      "android": 2919,
      "condensation": 2920,
      "junior": 2921,
      "06": 2922,
      "800w": 2923,
      "bx": 2924,
      "ome": 2925,
      "tante": 2926,
      "tete": 2927,
      "detro": 2928,
      "iso": 2929,
      "tache": 2930,
      "mex": 2931,
      "cool": 2932,
      "ill": 2933,
      "entre": 2934,
      "cade": 2935,
      "conve": 2936,
      "ffi": 2937,
      "teurs": 2938,
      "at4": 2939,
      "40l": 2940,
      "roulant": 2941,
      "racing": 2942,
      "hifi": 2943,
      "petro": 2944,
      "gues": 2945,
      "120x60": 2946,
      "metronic": 2947,
      "louis": 2948,
      "aero": 2949,
      "empilables": 2950,
      "appartement": 2951,
      "detroit": 2952,
      "118": 2953,
      "aa": 2954,
      "hori": 2955,
      "ive": 2956,
      "reparateur": 2957,
      "enfi": 2958,
      "change": 2959,
      "tipi": 2960,
      "nement": 2961,
      "solaire": 2962,
      "poin": 2963,
      "20l": 2964,
      "cubes": 2965,
      "cela": 2966,
      "its": 2967,
      "104": 2968,
      "nic": 2969,
      "bougie": 2970,
      "leds": 2971,
      "carbon": 2972,
      "bande": 2973,
      "polyure": 2974,
      "abri": 2975,
      "corbeille": 2976,
      "tribu": 2977,
      "58cm": 2978,
      "offerts": 2979,
      "satine": 2980,
      "vertical": 2981,
      "orientable": 2982,
      "scooter": 2983,
      "horizon": 2984,
      "enfilade": 2985,
      "ast": 2986,
      "faure": 2987,
      "ial": 2988,
      "ance": 2989,
      "melle": 2990,
      "media": 2991,
      "mixe": 2992,
      "riques": 2993,
      "140x240": 2994,
      "champ": 2995,
      "form": 2996,
      "162": 2997,
      "bouton": 2998,
      "hotel": 2999,
      "barres": 3000,
      "tendance": 3001,
      "bancs": 3002,
      "generation": 3003,
      "38x": 3004,
      "76cm": 3005,
      "factor": 3006,
      "clip": 3007,
      "64go": 3008,
      "200x200cm": 3009,
      "nordique": 3010,
      "pyro": 3011,
      "reveil": 3012,
      "256go": 3013,
      "sapin": 3014,
      "lombaire": 3015,
      "basic": 3016,
      "electronique": 3017,
      "factory": 3018,
      "225": 3019,
      "ibi": 3020,
      "xy": 3021,
      "teinte": 3022,
      "medi": 3023,
      "seur": 3024,
      "sive": 3025,
      "roman": 3026,
      "love": 3027,
      "socle": 3028,
      "digi": 3029,
      "pergo": 3030,
      "large": 3031,
      "retrac": 3032,
      "teck": 3033,
      "disting": 3034,
      "38cm": 3035,
      "airfresh": 3036,
      "strech": 3037,
      "modulaire": 3038,
      "massant": 3039,
      "128go": 3040,
      "woo": 3041,
      "professionnel": 3042,
      "silencie": 3043,
      "cartouche": 3044,
      "mixeur": 3045,
      "pergola": 3046,
      "distingue": 3047,
      "114": 3048,
      "4g": 3049,
      "aren": 3050,
      "c00": 3051,
      "ita": 3052,
      "nd": 3053,
      "pl": 3054,
      "reme": 3055,
      "ena": 3056,
      "tamis": 3057,
      "mement": 3058,
      "mable": 3059,
      "subli": 3060,
      "208": 3061,
      "victor": 3062,
      "roulette": 3063,
      "perle": 3064,
      "perfe": 3065,
      "carb": 3066,
      "latte": 3067,
      "lyse": 3068,
      "compo": 3069,
      "adaptabilite": 3070,
      "80x160": 3071,
      "ception": 3072,
      "terrasse": 3073,
      "watts": 3074,
      "cellu": 3075,
      "tunnel": 3076,
      "baroque": 3077,
      "retractable": 3078,
      "9kg": 3079,
      "bant": 3080,
      "fou": 3081,
      "mc": 3082,
      "nf": 3083,
      "pru": 3084,
      "up": 3085,
      "x30": 3086,
      "lenovo": 3087,
      "anat": 3088,
      "ond": 3089,
      "ouvert": 3090,
      "later": 3091,
      "tambour": 3092,
      "neider": 3093,
      "appu": 3094,
      "200x": 3095,
      "due": 3096,
      "aleses": 3097,
      "admir": 3098,
      "renforce": 3099,
      "toucher": 3100,
      "distribu": 3101,
      "28cm": 3102,
      "carreaux": 3103,
      "schneider": 3104,
      "80x150cm": 3105,
      "central": 3106,
      "lisere": 3107,
      "ventilation": 3108,
      "1200tr": 3109,
      "140x260cm": 3110,
      "mexicain": 3111,
      "pyrolyse": 3112,
      "distributeur": 3113,
      "270": 3114,
      "2200w": 3115,
      "7kg": 3116,
      "700w": 3117,
      "dc": 3118,
      "dw": 3119,
      "eres": 3120,
      "fille": 3121,
      "gps": 3122,
      "ham": 3123,
      "nano": 3124,
      "oli": 3125,
      "pil": 3126,
      "xla": 3127,
      "zi": 3128,
      "del": 3129,
      "deporte": 3130,
      "demon": 3131,
      "seau": 3132,
      "ily": 3133,
      "little": 3134,
      "canap": 3135,
      "stri": 3136,
      "vitra": 3137,
      "ceau": 3138,
      "luna": 3139,
      "100x1": 3140,
      "big": 3141,
      "carres": 3142,
      "thane": 3143,
      "26cm": 3144,
      "lampes": 3145,
      "hygi": 3146,
      "grey": 3147,
      "fume": 3148,
      "coulissants": 3149,
      "alix": 3150,
      "45x45": 3151,
      "durable": 3152,
      "assiettes": 3153,
      "reservoir": 3154,
      "menagere": 3155,
      "polyurethane": 3156,
      "ibiza": 3157,
      "perfect": 3158,
      "carbone": 3159,
      "eli": 3160,
      "ecou": 3161,
      "gur": 3162,
      "osier": 3163,
      "sara": 3164,
      "tw": 3165,
      "zy": 3166,
      "chon": 3167,
      "tige": 3168,
      "espri": 3169,
      "cosy": 3170,
      "quad": 3171,
      "quard": 3172,
      "canon": 3173,
      "stin": 3174,
      "pomme": 3175,
      "duvet": 3176,
      "multimedia": 3177,
      "136": 3178,
      "brace": 3179,
      "convertisseur": 3180,
      "volant": 3181,
      "22cm": 3182,
      "articule": 3183,
      "sieres": 3184,
      "pucc": 3185,
      "secteur": 3186,
      "revues": 3187,
      "mouline": 3188,
      "zza": 3189,
      "vieilli": 3190,
      "jacquard": 3191,
      "compacte": 3192,
      "programmes": 3193,
      "avant": 3194,
      "rocking": 3195,
      "190x90": 3196,
      "gobelet": 3197,
      "fanta": 3198,
      "sculpture": 3199,
      "petrole": 3200,
      "moulinex": 3201,
      "cin": 3202,
      "ew": 3203,
      "embou": 3204,
      "recu": 3205,
      "intex": 3206,
      "esthetique": 3207,
      "mia": 3208,
      "sofi": 3209,
      "cali": 3210,
      "inedit": 3211,
      "fiver": 3212,
      "bars": 3213,
      "itech": 3214,
      "note": 3215,
      "imper": 3216,
      "pince": 3217,
      "60x60cm": 3218,
      "proteges": 3219,
      "combinee": 3220,
      "epon": 3221,
      "bacs": 3222,
      "bras": 3223,
      "sky": 3224,
      "rouleau": 3225,
      "satin": 3226,
      "minuterie": 3227,
      "italy": 3228,
      "cotta": 3229,
      "flor": 3230,
      "original": 3231,
      "neiges": 3232,
      "absorbant": 3233,
      "admirable": 3234,
      "canapes": 3235,
      "esprit": 3236,
      "bracelet": 3237,
      "9cm": 3238,
      "cora": 3239,
      "cia": 3240,
      "cris": 3241,
      "plon": 3242,
      "rin": 3243,
      "sense": 3244,
      "xia": 3245,
      "debit": 3246,
      "mala": 3247,
      "room": 3248,
      "paille": 3249,
      "paration": 3250,
      "mbi": 3251,
      "mber": 3252,
      "metallise": 3253,
      "100w": 3254,
      "scandi": 3255,
      "152": 3256,
      "cars": 3257,
      "131": 3258,
      "laveur": 3259,
      "117": 3260,
      "globe": 3261,
      "thermique": 3262,
      "papillon": 3263,
      "ball": 3264,
      "garde": 3265,
      "platine": 3266,
      "rembourrees": 3267,
      "plumes": 3268,
      "87x": 3269,
      "watch": 3270,
      "cocotte": 3271,
      "halte": 3272,
      "63x63": 3273,
      "x70x40": 3274,
      "sublime": 3275,
      "victoria": 3276,
      "750": 3277,
      "affi": 3278,
      "ben": 3279,
      "bine": 3280,
      "ev": 3281,
      "fly": 3282,
      "ket": 3283,
      "lly": 3284,
      "mw": 3285,
      "nt": 3286,
      "nage": 3287,
      "rs": 3288,
      "vir": 3289,
      "isier": 3290,
      "ener": 3291,
      "meda": 3292,
      "mage": 3293,
      "aro": 3294,
      "cover": 3295,
      "lass": 3296,
      "losan": 3297,
      "coudre": 3298,
      "daquin": 3299,
      "50l": 3300,
      "16a": 3301,
      "saison": 3302,
      "fibres": 3303,
      "150x": 3304,
      "pix": 3305,
      "trape": 3306,
      "lisa": 3307,
      "liss": 3308,
      "hotpoint": 3309,
      "tantes": 3310,
      "70x140cm": 3311,
      "classeur": 3312,
      "baldaquin": 3313,
      "wind": 3314,
      "tourn": 3315,
      "dont": 3316,
      "olymp": 3317,
      "bistro": 3318,
      "diamond": 3319,
      "112x": 3320,
      "camping": 3321,
      "circu": 3322,
      "tamisant": 3323,
      "lateral": 3324,
      "sofia": 3325,
      "eponge": 3326,
      "xiaomi": 3327,
      "medaillon": 3328,
      "cs": 3329,
      "eta": 3330,
      "nette": 3331,
      "pes": 3332,
      "soir": 3333,
      "vb": 3334,
      "ville": 3335,
      "anci": 3336,
      "outi": 3337,
      "arriere": 3338,
      "rosieres": 3339,
      "constru": 3340,
      "rest": 3341,
      "mbra": 3342,
      "121": 3343,
      "galette": 3344,
      "bleue": 3345,
      "douchette": 3346,
      "proje": 3347,
      "extr": 3348,
      "139": 3349,
      "elevee": 3350,
      "tecteur": 3351,
      "rup": 3352,
      "souff": 3353,
      "supreme": 3354,
      "chauffe": 3355,
      "refrigerateurs": 3356,
      "tube": 3357,
      "maximale": 3358,
      "ampli": 3359,
      "pateres": 3360,
      "acarien": 3361,
      "animal": 3362,
      "camera": 3363,
      "mecanique": 3364,
      "direction": 3365,
      "outils": 3366,
      "projection": 3367,
      "650": 3368,
      "ajou": 3369,
      "dalle": 3370,
      "epo": 3371,
      "frange": 3372,
      "fmd": 3373,
      "ht": 3374,
      "hxl": 3375,
      "mson": 3376,
      "wd": 3377,
      "xs": 3378,
      "zag": 3379,
      "teo": 3380,
      "telle": 3381,
      "onfort": 3382,
      "indi": 3383,
      "lara": 3384,
      "iris": 3385,
      "vea": 3386,
      "armat": 3387,
      "size": 3388,
      "mois": 3389,
      "illable": 3390,
      "case": 3391,
      "rami": 3392,
      "pese": 3393,
      "day": 3394,
      "daim": 3395,
      "dide": 3396,
      "122": 3397,
      "126": 3398,
      "renfort": 3399,
      "tha": 3400,
      "ressort": 3401,
      "laquees": 3402,
      "femelle": 3403,
      "2x80x200": 3404,
      "siemens": 3405,
      "dyna": 3406,
      "brode": 3407,
      "moule": 3408,
      "autocuiseur": 3409,
      "34x": 3410,
      "patrouille": 3411,
      "superposes": 3412,
      "lumieres": 3413,
      "crochet": 3414,
      "karao": 3415,
      "71l": 3416,
      "professionnelle": 3417,
      "interrup": 3418,
      "anneaux": 3419,
      "sauter": 3420,
      "prune": 3421,
      "recuper": 3422,
      "karaoke": 3423,
      "08": 3424,
      "50x1": 3425,
      "asp": 3426,
      "cur": 3427,
      "fhd": 3428,
      "hex": 3429,
      "jelle": 3430,
      "plas": 3431,
      "rc": 3432,
      "s9": 3433,
      "sl": 3434,
      "sm": 3435,
      "tir": 3436,
      "wil": 3437,
      "x50": 3438,
      "recon": 3439,
      "anis": 3440,
      "separateur": 3441,
      "mosa": 3442,
      "ropo": 3443,
      "blancs": 3444,
      "rigi": 3445,
      "noirs": 3446,
      "materiel": 3447,
      "1419": 3448,
      "60w": 3449,
      "porce": 3450,
      "damas": 3451,
      "ather": 3452,
      "109": 3453,
      "168": 3454,
      "metalli": 3455,
      "marck": 3456,
      "gain": 3457,
      "galet": 3458,
      "peride": 3459,
      "100cm": 3460,
      "hevea": 3461,
      "25l": 3462,
      "pha": 3463,
      "idon": 3464,
      "stat": 3465,
      "28x": 3466,
      "corium": 3467,
      "superie": 3468,
      "clima": 3469,
      "menager": 3470,
      "stic": 3471,
      "160x230cm": 3472,
      "hesperide": 3473,
      "plume": 3474,
      "terracotta": 3475,
      "galvan": 3476,
      "140x40x98": 3477,
      "princesse": 3478,
      "titanium": 3479,
      "porcelaine": 3480,
      "marckonfort": 3481,
      "**": 3482,
      "2p": 3483,
      "ado": 3484,
      "aster": 3485,
      "bour": 3486,
      "die": 3487,
      "lisse": 3488,
      "stable": 3489,
      "xbox": 3490,
      "rehau": 3491,
      "rechange": 3492,
      "dess": 3493,
      "derouleur": 3494,
      "intes": 3495,
      "tailles": 3496,
      "chet": 3497,
      "seb": 3498,
      "semi": 3499,
      "titu": 3500,
      "arte": 3501,
      "qui": 3502,
      "midi": 3503,
      "alo": 3504,
      "acry": 3505,
      "contre": 3506,
      "stone": 3507,
      "format": 3508,
      "poste": 3509,
      "1600": 3510,
      "homer": 3511,
      "hoover": 3512,
      "door": 3513,
      "buee": 3514,
      "elegan": 3515,
      "elements": 3516,
      "filtran": 3517,
      "volets": 3518,
      "larges": 3519,
      "chaussure": 3520,
      "london": 3521,
      "incline": 3522,
      "naissance": 3523,
      "kosmi": 3524,
      "abs": 3525,
      "okk": 3526,
      "berceau": 3527,
      "stratifie": 3528,
      "frost": 3529,
      "30x30": 3530,
      "thomson": 3531,
      "brasse": 3532,
      "turbo": 3533,
      "natural": 3534,
      "kitchencook": 3535,
      "nouve": 3536,
      "stickers": 3537,
      "digital": 3538,
      "demontable": 3539,
      "cristal": 3540,
      "franges": 3541,
      "armature": 3542,
      "interrupteur": 3543,
      "rigide": 3544,
      "metalliques": 3545,
      "galvanise": 3546,
      "homerokk": 3547,
      "emer": 3548,
      "fore": 3549,
      "fag": 3550,
      "g9": 3551,
      "ji": 3552,
      "rh": 3553,
      "sme": 3554,
      "deli": 3555,
      "onde": 3556,
      "enio": 3557,
      "incomp": 3558,
      "chou": 3559,
      "chant": 3560,
      "etre": 3561,
      "etan": 3562,
      "ura": 3563,
      "arable": 3564,
      "loren": 3565,
      "cat": 3566,
      "story": 3567,
      "pear": 3568,
      "tissier": 3569,
      "1080": 3570,
      "splen": 3571,
      "noci": 3572,
      "multiprise": 3573,
      "gio": 3574,
      "120l": 3575,
      "terre": 3576,
      "nas": 3577,
      "32cm": 3578,
      "fonctions": 3579,
      "meri": 3580,
      "tropi": 3581,
      "puissance": 3582,
      "chenille": 3583,
      "46x": 3584,
      "mousti": 3585,
      "adaptative": 3586,
      "coulissant": 3587,
      "54cm": 3588,
      "bord": 3589,
      "mains": 3590,
      "traction": 3591,
      "nordic": 3592,
      "vitree": 3593,
      "pompons": 3594,
      "emma": 3595,
      "monaco": 3596,
      "olympia": 3597,
      "titude": 3598,
      "acrylique": 3599,
      "incomparable": 3600,
      "2m": 3601,
      "5kg": 3602,
      "bs": 3603,
      "bby": 3604,
      "cv": 3605,
      "elite": 3606,
      "g1": 3607,
      "glass": 3608,
      "lm": 3609,
      "lbc": 3610,
      "s1": 3611,
      "sn": 3612,
      "w1": 3613,
      "zer": 3614,
      "zig": 3615,
      "teri": 3616,
      "isoth": 3617,
      "ennes": 3618,
      "mesh": 3619,
      "mara": 3620,
      "lienne": 3621,
      "all": 3622,
      "bohe": 3623,
      "littau": 3624,
      "caisse": 3625,
      "coucher": 3626,
      "couteaux": 3627,
      "144": 3628,
      "147": 3629,
      "conique": 3630,
      "2020": 3631,
      "pee": 3632,
      "atlan": 3633,
      "10kg": 3634,
      "moder": 3635,
      "sony": 3636,
      "figur": 3637,
      "156": 3638,
      "1500": 3639,
      "24cm": 3640,
      "charme": 3641,
      "montres": 3642,
      "display": 3643,
      "40xh": 3644,
      "40x60": 3645,
      "21cm": 3646,
      "tina": 3647,
      "finlande": 3648,
      "folio": 3649,
      "50x76": 3650,
      "presse": 3651,
      "gyropo": 3652,
      "240x260cm": 3653,
      "240x220cm": 3654,
      "pirate": 3655,
      "31cm": 3656,
      "fsc": 3657,
      "brid": 3658,
      "choix": 3659,
      "abattants": 3660,
      "antiderapant": 3661,
      "luminaire": 3662,
      "dolce": 3663,
      "first": 3664,
      "120x40x98": 3665,
      "verrouillable": 3666,
      "recuperation": 3667,
      "athermique": 3668,
      "rehausseur": 3669,
      "etanche": 3670,
      "splendide": 3671,
      "isotherme": 3672,
      "finlandek": 3673,
      "gyropode": 3674,
      "1200w": 3675,
      "2cm": 3676,
      "3en1": 3677,
      "450": 3678,
      "4000": 3679,
      "5five": 3680,
      "aise": 3681,
      "blin": 3682,
      "e14": 3683,
      "ebac": 3684,
      "fle": 3685,
      "fru": 3686,
      "jon": 3687,
      "mf": 3688,
      "rallonges": 3689,
      "stal": 3690,
      "td": 3691,
      "uti": 3692,
      "wf": 3693,
      "ley": 3694,
      "anna": 3695,
      "decou": 3696,
      "tab": 3697,
      "choc": 3698,
      "mel": 3699,
      "literie": 3700,
      "robe": 3701,
      "lovel": 3702,
      "look": 3703,
      "couteau": 3704,
      "portique": 3705,
      "cupi": 3706,
      "beau": 3707,
      "rasoir": 3708,
      "dinos": 3709,
      "attrape": 3710,
      "80l": 3711,
      "1800w": 3712,
      "doree": 3713,
      "stylee": 3714,
      "noi": 3715,
      "150x200": 3716,
      "comfort": 3717,
      "piles": 3718,
      "195": 3719,
      "minima": 3720,
      "creuse": 3721,
      "111": 3722,
      "tris": 3723,
      "kaki": 3724,
      "ellip": 3725,
      "amovibles": 3726,
      "assis": 3727,
      "gusto": 3728,
      "50x80cm": 3729,
      "30xh": 3730,
      "capitonnees": 3731,
      "thermostat": 3732,
      "joli": 3733,
      "garanti": 3734,
      "prestige": 3735,
      "office": 3736,
      "120x170cm": 3737,
      "fsr": 3738,
      "connect": 3739,
      "omie": 3740,
      "tuner": 3741,
      "recycle": 3742,
      "epices": 3743,
      "wars": 3744,
      "inertie": 3745,
      "points": 3746,
      "arenal": 3747,
      "anatomique": 3748,
      "embouts": 3749,
      "boheme": 3750,
      "lovely": 3751,
      "cupid": 3752,
      "1m": 3753,
      "ais": 3754,
      "agr": 3755,
      "bise": 3756,
      "fy": 3757,
      "hap": 3758,
      "iques": 3759,
      "jap": 3760,
      "ov": 3761,
      "vr": 3762,
      "zia": 3763,
      "remp": 3764,
      "anten": 3765,
      "magi": 3766,
      "time": 3767,
      "vega": 3768,
      "arie": 3769,
      "sider": 3770,
      "moto": 3771,
      "modul": 3772,
      "riz": 3773,
      "boston": 3774,
      "mph": 3775,
      "accro": 3776,
      "porto": 3777,
      "cuve": 3778,
      "paon": 3779,
      "piece": 3780,
      "sonic": 3781,
      "ling": 3782,
      "181": 3783,
      "exte": 3784,
      "exclu": 3785,
      "mina": 3786,
      "minnie": 3787,
      "pliantes": 3788,
      "45l": 3789,
      "regen": 3790,
      "unite": 3791,
      "dents": 3792,
      "plex": 3793,
      "supersoft": 3794,
      "movit": 3795,
      "house": 3796,
      "cyc": 3797,
      "zzi": 3798,
      "34cm": 3799,
      "optique": 3800,
      "graphi": 3801,
      "dura": 3802,
      "beldeko": 3803,
      "laineux": 3804,
      "138x": 3805,
      "integres": 3806,
      "nouettes": 3807,
      "yoga": 3808,
      "valent": 3809,
      "domino": 3810,
      "legere": 3811,
      "corail": 3812,
      "112x87x": 3813,
      "construction": 3814,
      "epoxy": 3815,
      "fagor": 3816,
      "decouper": 3817,
      "minimalis": 3818,
      "090": 3819,
      "9x": 3820,
      "cint": 3821,
      "dg": 3822,
      "hat": 3823,
      "iod": 3824,
      "oa": 3825,
      "opa": 3826,
      "pino": 3827,
      "ww": 3828,
      "wave": 3829,
      "yp": 3830,
      "yx": 3831,
      "real": 3832,
      "andi": 3833,
      "antique": 3834,
      "secre": 3835,
      "maro": 3836,
      "aude": 3837,
      "aris": 3838,
      "quoti": 3839,
      "albi": 3840,
      "laser": 3841,
      "irect": 3842,
      "lo30x": 3843,
      "casse": 3844,
      "caise": 3845,
      "rafra": 3846,
      "chevalet": 3847,
      "sav": 3848,
      "link": 3849,
      "persi": 3850,
      "18cm": 3851,
      "profi": 3852,
      "profon": 3853,
      "cardio": 3854,
      "racer": 3855,
      "retina": 3856,
      "amd": 3857,
      "visiod": 3858,
      "176": 3859,
      "plantes": 3860,
      "francaise": 3861,
      "29cm": 3862,
      "tane": 3863,
      "classic": 3864,
      "skandi": 3865,
      "altozone": 3866,
      "lanterne": 3867,
      "hoverkart": 3868,
      "organiseur": 3869,
      "sintra": 3870,
      "connecte": 3871,
      "boitier": 3872,
      "casserole": 3873,
      "gymnas": 3874,
      "morphologique": 3875,
      "halteres": 3876,
      "climatis": 3877,
      "emeraude": 3878,
      "lorenzo": 3879,
      "utilis": 3880,
      "happy": 3881,
      "antenne": 3882,
      "sideral": 3883,
      "cintres": 3884,
      "quotidien": 3885,
      "lo30xla": 3886,
      "visiodirect": 3887,
      "gymnastique": 3888,
      "05": 3889,
      "07": 3890,
      "2oreillers": 3891,
      "ckey": 3892,
      "flas": 3893,
      "fst": 3894,
      "itable": 3895,
      "jets": 3896,
      "mx": 3897,
      "ninten": 3898,
      "wan": 3899,
      "zinc": 3900,
      "less": 3901,
      "rechaud": 3902,
      "encadre": 3903,
      "inver": 3904,
      "latitude": 3905,
      "separation": 3906,
      "etri": 3907,
      "ether": 3908,
      "illa": 3909,
      "mila": 3910,
      "veritable": 3911,
      "soja": 3912,
      "142": 3913,
      "143": 3914,
      "sub": 3915,
      "boise": 3916,
      "ceint": 3917,
      "ssis": 3918,
      "dina": 3919,
      "124": 3920,
      "161": 3921,
      "1620": 3922,
      "marches": 3923,
      "marvel": 3924,
      "fonces": 3925,
      "180x2": 3926,
      "noe": 3927,
      "130x": 3928,
      "130x1": 3929,
      "reglage": 3930,
      "decker": 3931,
      "240x200": 3932,
      "27cm": 3933,
      "32go": 3934,
      "172": 3935,
      "179": 3936,
      "sieur": 3937,
      "colores": 3938,
      "mesure": 3939,
      "present": 3940,
      "clou": 3941,
      "frigo": 3942,
      "toilettes": 3943,
      "vitesse": 3944,
      "fentes": 3945,
      "equi": 3946,
      "200x290cm": 3947,
      "floren": 3948,
      "maria": 3949,
      "excellente": 3950,
      "casseroles": 3951,
      "relli": 3952,
      "entretien": 3953,
      "140x240cm": 3954,
      "saisons": 3955,
      "externe": 3956,
      "nintendo": 3957,
      "ethernet": 3958,
      "1w": 3959,
      "6s": 3960,
      "6kg": 3961,
      "ax": 3962,
      "ambi": 3963,
      "ddy": 3964,
      "free": 3965,
      "glace": 3966,
      "hb": 3967,
      "kon": 3968,
      "kru": 3969,
      "ppa": 3970,
      "psy": 3971,
      "degres": 3972,
      "cm2": 3973,
      "tasse": 3974,
      "iro": 3975,
      "madri": 3976,
      "lix": 3977,
      "est": 3978,
      "miami": 3979,
      "log": 3980,
      "lorelli": 3981,
      "verni": 3982,
      "soph": 3983,
      "caire": 3984,
      "couture": 3985,
      "ceco": 3986,
      "parleur": 3987,
      "100x190": 3988,
      "fondue": 3989,
      "ush": 3990,
      "visiere": 3991,
      "incur": 3992,
      "spirit": 3993,
      "178": 3994,
      "36cm": 3995,
      "plancha": 3996,
      "triangle": 3997,
      "mouve": 3998,
      "luxor": 3999,
      "patine": 4000,
      "thermoregu": 4001,
      "yaour": 4002,
      "accessoire": 4003,
      "ventou": 4004,
      "enceintes": 4005,
      "128gb": 4006,
      "graphique": 4007,
      "cylindre": 4008,
      "jete": 4009,
      "cloison": 4010,
      "lt140": 4011,
      "dark": 4012,
      "programmable": 4013,
      "140x40x76": 4014,
      "organisateur": 4015,
      "laterale": 4016,
      "phones": 4017,
      "bourdon": 4018,
      "dessous": 4019,
      "nouveau": 4020,
      "tristar": 4021,
      "elliptique": 4022,
      "minimaliste": 4023,
      "secretaire": 4024,
      "lo30xla30xh": 4025,
      "ceinture": 4026,
      "presentoir": 4027,
      "krups": 4028,
      "050": 4029,
      "3cm": 4030,
      "630": 4031,
      "80x2": 4032,
      "ae": 4033,
      "bron": 4034,
      "bonne": 4035,
      "df": 4036,
      "dora": 4037,
      "eiff": 4038,
      "hf": 4039,
      "kid": 4040,
      "sing": 4041,
      "squa": 4042,
      "tt": 4043,
      "vga": 4044,
      "yk": 4045,
      "leure": 4046,
      "legu": 4047,
      "rece": 4048,
      "andre": 4049,
      "lapin": 4050,
      "lames": 4051,
      "mega": 4052,
      "aud": 4053,
      "auberg": 4054,
      "tire": 4055,
      "arth": 4056,
      "riga": 4057,
      "soli": 4058,
      "ieres": 4059,
      "205": 4060,
      "207": 4061,
      "cus": 4062,
      "vit": 4063,
      "palace": 4064,
      "roue": 4065,
      "scandina": 4066,
      "clay": 4067,
      "butane": 4068,
      "cara": 4069,
      "132": 4070,
      "134": 4071,
      "mickey": 4072,
      "lyn": 4073,
      "pans": 4074,
      "poutre": 4075,
      "2400w": 4076,
      "indus": 4077,
      "lona": 4078,
      "antitache": 4079,
      "bibliotheques": 4080,
      "useur": 4081,
      "2x20": 4082,
      "65l": 4083,
      "60x40": 4084,
      "brook": 4085,
      "tual": 4086,
      "greta": 4087,
      "assor": 4088,
      "110cm": 4089,
      "secret": 4090,
      "gaufri": 4091,
      "calcaire": 4092,
      "epingle": 4093,
      "000w": 4094,
      "60x110": 4095,
      "centre": 4096,
      "outdoor": 4097,
      "brio": 4098,
      "compaq": 4099,
      "moyen": 4100,
      "redmi": 4101,
      "135x190": 4102,
      "balancelle": 4103,
      "musique": 4104,
      "spiderman": 4105,
      "ouverts": 4106,
      "autonomie": 4107,
      "convection": 4108,
      "fruits": 4109,
      "cecotec": 4110,
      "eiffel": 4111,
      "square": 4112,
      "receveur": 4113,
      "aubergine": 4114,
      "gaufrier": 4115,
      "060": 4116,
      "310": 4117,
      "370": 4118,
      "480": 4119,
      "410": 4120,
      "asse": 4121,
      "dj": 4122,
      "elas": 4123,
      "ecla": 4124,
      "eden": 4125,
      "far": 4126,
      "greg": 4127,
      "hc": 4128,
      "mmes": 4129,
      "sma": 4130,
      "ska": 4131,
      "x6": 4132,
      "x18": 4133,
      "rea": 4134,
      "ande": 4135,
      "onnes": 4136,
      "isto": 4137,
      "enique": 4138,
      "lame": 4139,
      "chons": 4140,
      "melan": 4141,
      "sechant": 4142,
      "tia": 4143,
      "life": 4144,
      "body": 4145,
      "verin": 4146,
      "verona": 4147,
      "solo": 4148,
      "cabine": 4149,
      "bali": 4150,
      "148": 4151,
      "rales": 4152,
      "plage": 4153,
      "40mm": 4154,
      "125x": 4155,
      "169": 4156,
      "piere": 4157,
      "otto": 4158,
      "tissus": 4159,
      "rondes": 4160,
      "fic": 4161,
      "lino": 4162,
      "orage": 4163,
      "doudou": 4164,
      "exo": 4165,
      "exception": 4166,
      "manhat": 4167,
      "sten": 4168,
      "ingenio": 4169,
      "electriques": 4170,
      "tradition": 4171,
      "pinces": 4172,
      "rust": 4173,
      "ruban": 4174,
      "naw": 4175,
      "supports": 4176,
      "chica": 4177,
      "merisier": 4178,
      "articules": 4179,
      "cds": 4180,
      "cio": 4181,
      "grands": 4182,
      "adultes": 4183,
      "morning": 4184,
      "orient": 4185,
      "37x": 4186,
      "56cm": 4187,
      "500go": 4188,
      "73l": 4189,
      "mspa": 4190,
      "escamo": 4191,
      "flower": 4192,
      "oiseaux": 4193,
      "transats": 4194,
      "campagne": 4195,
      "cendre": 4196,
      "effleure": 4197,
      "512go": 4198,
      "appui": 4199,
      "hygienique": 4200,
      "inclinee": 4201,
      "nocive": 4202,
      "figurine": 4203,
      "ariston": 4204,
      "madrid": 4205,
      "logitech": 4206,
      "legumes": 4207,
      "manhattan": 4208,
      "effleurement": 4209,
      "420": 4210,
      "5w": 4211,
      "580": 4212,
      "70x1": 4213,
      "70x200": 4214,
      "cis": 4215,
      "cac": 4216,
      "dd": 4217,
      "eacu": 4218,
      "fau": 4219,
      "gl": 4220,
      "gt": 4221,
      "gou": 4222,
      "iv": 4223,
      "ks": 4224,
      "kron": 4225,
      "kili": 4226,
      "lourde": 4227,
      "nge": 4228,
      "nora": 4229,
      "ola": 4230,
      "oeu": 4231,
      "rallonge": 4232,
      "rvb": 4233,
      "s2": 4234,
      "tpr": 4235,
      "v2": 4236,
      "wire": 4237,
      "isi": 4238,
      "isme": 4239,
      "endu": 4240,
      "enjoy": 4241,
      "ink": 4242,
      "innova": 4243,
      "erap": 4244,
      "lago": 4245,
      "see": 4246,
      "seuse": 4247,
      "tik": 4248,
      "liere": 4249,
      "veil": 4250,
      "coche": 4251,
      "mileo": 4252,
      "alona": 4253,
      "rid": 4254,
      "contr": 4255,
      "stan": 4256,
      "ford": 4257,
      "202": 4258,
      "2019": 4259,
      "2017": 4260,
      "tions": 4261,
      "palette": 4262,
      "rame": 4263,
      "chev": 4264,
      "cheval": 4265,
      "ssa": 4266,
      "10cm": 4267,
      "105x": 4268,
      "127": 4269,
      "sacoche": 4270,
      "bleus": 4271,
      "157": 4272,
      "15x": 4273,
      "mont": 4274,
      "inclu": 4275,
      "capsu": 4276,
      "57x": 4277,
      "abdomin": 4278,
      "chauffeuse": 4279,
      "mmy": 4280,
      "humidi": 4281,
      "strass": 4282,
      "tuf": 4283,
      "ghi": 4284,
      "ronds": 4285,
      "froide": 4286,
      "otherap": 4287,
      "inclina": 4288,
      "moulin": 4289,
      "fois": 4290,
      "barreaux": 4291,
      "caline": 4292,
      "calyp": 4293,
      "jouet": 4294,
      "epson": 4295,
      "31x": 4296,
      "releveur": 4297,
      "interieure": 4298,
      "tourne": 4299,
      "potter": 4300,
      "courses": 4301,
      "iii": 4302,
      "160x80cm": 4303,
      "orthopedi": 4304,
      "view": 4305,
      "escabeau": 4306,
      "82cm": 4307,
      "pyrami": 4308,
      "sortie": 4309,
      "rednaw": 4310,
      "differentes": 4311,
      "nettoyage": 4312,
      "valise": 4313,
      "lacement": 4314,
      "85x77": 4315,
      "kumi": 4316,
      "sauva": 4317,
      "drier": 4318,
      "epilateur": 4319,
      "musical": 4320,
      "otio": 4321,
      "3000w": 4322,
      "connectee": 4323,
      "ouverte": 4324,
      "celadon": 4325,
      "skylara": 4326,
      "plongeant": 4327,
      "hexag": 4328,
      "meridi": 4329,
      "atlanta": 4330,
      "displayport": 4331,
      "durabilite": 4332,
      "bronze": 4333,
      "escamotable": 4334,
      "eacute": 4335,
      "otherapie": 4336,
      "224": 4337,
      "6cm": 4338,
      "eb": 4339,
      "emili": 4340,
      "ecolo": 4341,
      "fis": 4342,
      "fbt": 4343,
      "fwt": 4344,
      "fjor": 4345,
      "hg": 4346,
      "han": 4347,
      "kap": 4348,
      "pit": 4349,
      "ples": 4350,
      "rj": 4351,
      "sangle": 4352,
      "sensa": 4353,
      "uhr": 4354,
      "vira": 4355,
      "wok": 4356,
      "ys": 4357,
      "dejeu": 4358,
      "decoupe": 4359,
      "eryk": 4360,
      "lager": 4361,
      "tail": 4362,
      "metres": 4363,
      "severin": 4364,
      "map": 4365,
      "lion": 4366,
      "00k": 4367,
      "lanca": 4368,
      "nequin": 4369,
      "verte": 4370,
      "146": 4371,
      "140x1": 4372,
      "ineau": 4373,
      "poire": 4374,
      "poele": 4375,
      "posable": 4376,
      "206": 4377,
      "vibran": 4378,
      "dietri": 4379,
      "cto": 4380,
      "total": 4381,
      "vagues": 4382,
      "roulante": 4383,
      "bian": 4384,
      "18v": 4385,
      "produ": 4386,
      "nois": 4387,
      "mannequin": 4388,
      "gies": 4389,
      "giga": 4390,
      "eux": 4391,
      "piano": 4392,
      "traineau": 4393,
      "24l": 4394,
      "19v": 4395,
      "adaptable": 4396,
      "grandes": 4397,
      "femme": 4398,
      "pliables": 4399,
      "32x": 4400,
      "177": 4401,
      "gene": 4402,
      "76x": 4403,
      "niveau": 4404,
      "60x90": 4405,
      "broy": 4406,
      "gaze": 4407,
      "wickey": 4408,
      "120x30x": 4409,
      "senya": 4410,
      "julia": 4411,
      "thermolaque": 4412,
      "placement": 4413,
      "integrale": 4414,
      "grillage": 4415,
      "images": 4416,
      "theiere": 4417,
      "petits": 4418,
      "180x90x": 4419,
      "adhesifs": 4420,
      "maldi": 4421,
      "bur10": 4422,
      "triomph": 4423,
      "acuation": 4424,
      "boites": 4425,
      "overboard": 4426,
      "flottante": 4427,
      "palmier": 4428,
      "hsr": 4429,
      "ateliers": 4430,
      "dekoarte": 4431,
      "montreal": 4432,
      "champagne": 4433,
      "italienne": 4434,
      "vitrages": 4435,
      "ecouteurs": 4436,
      "cintre": 4437,
      "imperial": 4438,
      "evacuation": 4439,
      "ajoure": 4440,
      "1080p": 4441,
      "agru": 4442,
      "profondeur": 4443,
      "exotique": 4444,
      "chicago": 4445,
      "inclinaison": 4446,
      "fjord": 4447,
      "lancaster": 4448,
      "dietrich": 4449,
      "119": 4450,
      "2w": 4451,
      "3w": 4452,
      "4m": 4453,
      "620": 4454,
      "9l": 4455,
      "ades": 4456,
      "amade": 4457,
      "c3": 4458,
      "dry": 4459,
      "ef": 4460,
      "emo": 4461,
      "emaille": 4462,
      "fg": 4463,
      "fum": 4464,
      "gtx": 4465,
      "iti": 4466,
      "joe": 4467,
      "lr": 4468,
      "sf": 4469,
      "usten": 4470,
      "zu": 4471,
      "lea": 4472,
      "detecteur": 4473,
      "isible": 4474,
      "inspir": 4475,
      "lady": 4476,
      "taine": 4477,
      "chu": 4478,
      "chettes": 4479,
      "oria": 4480,
      "mah": 4481,
      "malle": 4482,
      "autre": 4483,
      "urban": 4484,
      "motor": 4485,
      "ourson": 4486,
      "app": 4487,
      "actual": 4488,
      "sola": 4489,
      "soire": 4490,
      "141": 4491,
      "1420": 4492,
      "antist": 4493,
      "menthe": 4494,
      "203": 4495,
      "dais": 4496,
      "mbx": 4497,
      "nid": 4498,
      "dublin": 4499,
      "vation": 4500,
      "valeur": 4501,
      "biber": 4502,
      "fontaine": 4503,
      "hobby": 4504,
      "clapet": 4505,
      "189": 4506,
      "domo": 4507,
      "158": 4508,
      "manive": 4509,
      "chaude": 4510,
      "colmar": 4511,
      "120w": 4512,
      "volet": 4513,
      "25x": 4514,
      "doublee": 4515,
      "192": 4516,
      "cappucc": 4517,
      "chien": 4518,
      "igni": 4519,
      "dence": 4520,
      "42l": 4521,
      "48cm": 4522,
      "hip": 4523,
      "fox": 4524,
      "guidon": 4525,
      "sensible": 4526,
      "ders": 4527,
      "98x": 4528,
      "74x": 4529,
      "7400w": 4530,
      "winds": 4531,
      "peinture": 4532,
      "hero": 4533,
      "diffuseur": 4534,
      "rouleaux": 4535,
      "minuteur": 4536,
      "lightning": 4537,
      "royalty": 4538,
      "halo": 4539,
      "silence": 4540,
      "cascade": 4541,
      "dallas": 4542,
      "princess": 4543,
      "laterales": 4544,
      "nickel": 4545,
      "medium": 4546,
      "silencieux": 4547,
      "tellerie": 4548,
      "filtrant": 4549,
      "japona": 4550,
      "cyclon": 4551,
      "gregory": 4552,
      "calyptus": 4553,
      "ecologique": 4554,
      "dejeuner": 4555,
      "lagertha": 4556,
      "broyeur": 4557,
      "amadeus": 4558,
      "manivelle": 4559,
      "cappuccino": 4560,
      "330": 4561,
      "6b": 4562,
      "610": 4563,
      "a4": 4564,
      "bang": 4565,
      "hon": 4566,
      "mn": 4567,
      "mum": 4568,
      "nina": 4569,
      "sff": 4570,
      "uv": 4571,
      "usa": 4572,
      "w10": 4573,
      "rex": 4574,
      "recou": 4575,
      "reno": 4576,
      "anse": 4577,
      "ouge": 4578,
      "infr": 4579,
      "irobi": 4580,
      "mea": 4581,
      "maya": 4582,
      "etf": 4583,
      "tille": 4584,
      "liber": 4585,
      "arouge": 4586,
      "sicela": 4587,
      "quat": 4588,
      "moon": 4589,
      "illis": 4590,
      "roma": 4591,
      "rosa": 4592,
      "gri": 4593,
      "los": 4594,
      "acie": 4595,
      "1400w": 4596,
      "chamb": 4597,
      "sty": 4598,
      "poster": 4599,
      "200x1": 4600,
      "paisible": 4601,
      "peu": 4602,
      "diun": 4603,
      "10w": 4604,
      "163": 4605,
      "nice": 4606,
      "bouchon": 4607,
      "treillis": 4608,
      "184": 4609,
      "nok": 4610,
      "hepa": 4611,
      "multicolor": 4612,
      "carla": 4613,
      "carton": 4614,
      "133": 4615,
      "1300w": 4616,
      "coffres": 4617,
      "orel": 4618,
      "eucalyptus": 4619,
      "pana": 4620,
      "surpi": 4621,
      "servation": 4622,
      "amor": 4623,
      "privi": 4624,
      "ecg": 4625,
      "nairobi": 4626,
      "antichoc": 4627,
      "credence": 4628,
      "spirale": 4629,
      "150kg": 4630,
      "lisbon": 4631,
      "effets": 4632,
      "hottes": 4633,
      "cordon": 4634,
      "42cm": 4635,
      "23l": 4636,
      "tubes": 4637,
      "croque": 4638,
      "triple": 4639,
      "stitue": 4640,
      "43x": 4641,
      "juven": 4642,
      "oppo": 4643,
      "gardiun": 4644,
      "fuge": 4645,
      "babyliss": 4646,
      "vieux": 4647,
      "rayon": 4648,
      "altolattes": 4649,
      "harry": 4650,
      "essential": 4651,
      "extracteur": 4652,
      "rotative": 4653,
      "260x240cm": 4654,
      "matelassee": 4655,
      "kenwood": 4656,
      "cartouches": 4657,
      "regule": 4658,
      "bestway": 4659,
      "varia": 4660,
      "bandeau": 4661,
      "silencieuse": 4662,
      "fumee": 4663,
      "soufflant": 4664,
      "reconstitue": 4665,
      "flash": 4666,
      "exceptionnel": 4667,
      "humidificateur": 4668,
      "ustensi": 4669,
      "actually": 4670,
      "windsor": 4671,
      "infrarouge": 4672,
      "2to": 4673,
      "60x2": 4674,
      "8m": 4675,
      "bisse": 4676,
      "bride": 4677,
      "edu": 4678,
      "flu": 4679,
      "fari": 4680,
      "fram": 4681,
      "gv": 4682,
      "gour": 4683,
      "jb": 4684,
      "jes": 4685,
      "lxh": 4686,
      "nb": 4687,
      "nc": 4688,
      "octo": 4689,
      "pg": 4690,
      "rt": 4691,
      "sj": 4692,
      "spots": 4693,
      "you": 4694,
      "relle": 4695,
      "tea": 4696,
      "anan": 4697,
      "anderie": 4698,
      "oux": 4699,
      "intemp": 4700,
      "lais": 4701,
      "tao": 4702,
      "tara": 4703,
      "chy": 4704,
      "chape": 4705,
      "aun": 4706,
      "aut": 4707,
      "estel": 4708,
      "ilisateur": 4709,
      "alca": 4710,
      "lit06": 4711,
      "caout": 4712,
      "coutil": 4713,
      "ieu": 4714,
      "cantile": 4715,
      "pois": 4716,
      "209": 4717,
      "viera": 4718,
      "cele": 4719,
      "ceuse": 4720,
      "patissier": 4721,
      "dino": 4722,
      "pein": 4723,
      "ath": 4724,
      "athe": 4725,
      "12cm": 4726,
      "tom": 4727,
      "164": 4728,
      "167": 4729,
      "nik": 4730,
      "nim": 4731,
      "marque": 4732,
      "gami": 4733,
      "dores": 4734,
      "nomade": 4735,
      "153": 4736,
      "155x": 4737,
      "buanderie": 4738,
      "cartes": 4739,
      "giu": 4740,
      "vos": 4741,
      "natureo": 4742,
      "trash": 4743,
      "252": 4744,
      "221": 4745,
      "beiges": 4746,
      "agathe": 4747,
      "198": 4748,
      "hdpe": 4749,
      "17x": 4750,
      "300cm": 4751,
      "48x": 4752,
      "airlux": 4753,
      "50x80": 4754,
      "44cm": 4755,
      "120x160": 4756,
      "33x": 4757,
      "oscar": 4758,
      "sterilisateur": 4759,
      "exterieure": 4760,
      "ryzen": 4761,
      "system": 4762,
      "besoa": 4763,
      "zed": 4764,
      "voilages": 4765,
      "argentee": 4766,
      "raye": 4767,
      "lsf": 4768,
      "adele": 4769,
      "88x": 4770,
      "cylindriques": 4771,
      "boost": 4772,
      "vitalmemo": 4773,
      "intelli": 4774,
      "marius": 4775,
      "cendrier": 4776,
      "pompon": 4777,
      "amibot": 4778,
      "mecanisme": 4779,
      "milo": 4780,
      "vitamine": 4781,
      "autonome": 4782,
      "horizontal": 4783,
      "affichage": 4784,
      "ancienne": 4785,
      "chouc": 4786,
      "garantie": 4787,
      "remplacement": 4788,
      "ariete": 4789,
      "savon": 4790,
      "persiennes": 4791,
      "climatiseur": 4792,
      "psyche": 4793,
      "mouvement": 4794,
      "melangeur": 4795,
      "sauvage": 4796,
      "meridienne": 4797,
      "noisette": 4798,
      "daisy": 4799,
      "japonais": 4800,
      "privilege": 4801,
      "ustensiles": 4802,
      "intemporel": 4803,
      "caoutchouc": 4804,
      "cantilever": 4805,
      "040": 4806,
      "300w": 4807,
      "430": 4808,
      "520": 4809,
      "540": 4810,
      "85cm": 4811,
      "86x": 4812,
      "aig": 4813,
      "c0": 4814,
      "cb": 4815,
      "cp": 4816,
      "cil": 4817,
      "fd": 4818,
      "fkw": 4819,
      "hieu": 4820,
      "ping": 4821,
      "sb": 4822,
      "scie": 4823,
      "usage": 4824,
      "vy": 4825,
      "v70": 4826,
      "w2": 4827,
      "zr": 4828,
      "leaf": 4829,
      "levira": 4830,
      "ista": 4831,
      "taur": 4832,
      "chsia": 4833,
      "meli": 4834,
      "seat": 4835,
      "mati": 4836,
      "essu": 4837,
      "queen": 4838,
      "boho": 4839,
      "lo40x": 4840,
      "mateo": 4841,
      "matera": 4842,
      "litre": 4843,
      "bao": 4844,
      "cous": 4845,
      "confe": 4846,
      "poche": 4847,
      "201": 4848,
      "cuille": 4849,
      "vites": 4850,
      "vipack": 4851,
      "lumens": 4852,
      "parme": 4853,
      "pem": 4854,
      "dai": 4855,
      "atoire": 4856,
      "80w": 4857,
      "today": 4858,
      "166": 4859,
      "safari": 4860,
      "sons": 4861,
      "linen": 4862,
      "gast": 4863,
      "gazon": 4864,
      "gota": 4865,
      "183": 4866,
      "probook": 4867,
      "portefeuille": 4868,
      "buck": 4869,
      "manager": 4870,
      "13_": 4871,
      "fermes": 4872,
      "mathieu": 4873,
      "pizza": 4874,
      "ingles": 4875,
      "saniti": 4876,
      "25w": 4877,
      "rack": 4878,
      "35kg": 4879,
      "retour": 4880,
      "phant": 4881,
      "run": 4882,
      "desk": 4883,
      "265": 4884,
      "57cm": 4885,
      "feuil": 4886,
      "sher": 4887,
      "shine": 4888,
      "facade": 4889,
      "nuits": 4890,
      "hybride": 4891,
      "brother": 4892,
      "euro": 4893,
      "64gb": 4894,
      "30x50": 4895,
      "balles": 4896,
      "suspendus": 4897,
      "fuchsia": 4898,
      "77x40": 4899,
      "torchons": 4900,
      "grafic": 4901,
      "vana": 4902,
      "respirante": 4903,
      "electromenager": 4904,
      "image": 4905,
      "biologique": 4906,
      "53cm": 4907,
      "floki": 4908,
      "empire": 4909,
      "liseuse": 4910,
      "flora": 4911,
      "amica": 4912,
      "sticker": 4913,
      "goods": 4914,
      "excellence": 4915,
      "40x120x": 4916,
      "plateforme": 4917,
      "sauteuse": 4918,
      "isofix": 4919,
      "cellular": 4920,
      "sensei": 4921,
      "tournante": 4922,
      "mosaic": 4923,
      "exclusive": 4924,
      "noemi": 4925,
      "cloud": 4926,
      "arthur": 4927,
      "oeuf": 4928,
      "maldives": 4929,
      "antistress": 4930,
      "juvenil": 4931,
      "bissell": 4932,
      "lxhxp": 4933,
      "alcatel": 4934,
      "lo40xla": 4935,
      "sanitized": 4936,
      "340": 4937,
      "440": 4938,
      "510": 4939,
      "500w": 4940,
      "5000": 4941,
      "660": 4942,
      "600w": 4943,
      "750w": 4944,
      "95x": 4945,
      "asy": 4946,
      "bjor": 4947,
      "crap": 4948,
      "dson": 4949,
      "dney": 4950,
      "ek": 4951,
      "ever": 4952,
      "embra": 4953,
      "fx": 4954,
      "fine": 4955,
      "g2": 4956,
      "gm": 4957,
      "glis": 4958,
      "hn": 4959,
      "herme": 4960,
      "hetre": 4961,
      "mt": 4962,
      "s6": 4963,
      "s7": 4964,
      "vues": 4965,
      "yse": 4966,
      "zip": 4967,
      "lecture": 4968,
      "reception": 4969,
      "teka": 4970,
      "iser": 4971,
      "indien": 4972,
      "mau": 4973,
      "tilt": 4974,
      "arro": 4975,
      "cododo": 4976,
      "sika": 4977,
      "quaire": 4978,
      "mobil": 4979,
      "roie": 4980,
      "rotation": 4981,
      "lasse": 4982,
      "apy": 4983,
      "apol": 4984,
      "90l": 4985,
      "cain": 4986,
      "conservation": 4987,
      "poches": 4988,
      "20w": 4989,
      "2016": 4990,
      "2018": 4991,
      "vibra": 4992,
      "paisseur": 4993,
      "plates": 4994,
      "12v": 4995,
      "nico": 4996,
      "space": 4997,
      "spacie": 4998,
      "sala": 4999,
      "saba": 5000,
      "fila": 5001,
      "martin": 5002,
      "perfore": 5003,
      "boucle": 5004,
      "bougies": 5005,
      "homme": 5006,
      "180x190": 5007,
      "185cm": 5008,
      "dop": 5009,
      "step": 5010,
      "steel": 5011,
      "13cm": 5012,
      "gia": 5013,
      "vola": 5014,
      "clairs": 5015,
      "rena": 5016,
      "xel": 5017,
      "roses": 5018,
      "charly": 5019,
      "22l": 5020,
      "visage": 5021,
      "agen": 5022,
      "cky": 5023,
      "price": 5024,
      "2600": 5025,
      "capteur": 5026,
      "granit": 5027,
      "polyvalen": 5028,
      "chauffante": 5029,
      "36v": 5030,
      "bascu": 5031,
      "trol": 5032,
      "ps3": 5033,
      "therapy": 5034,
      "tui": 5035,
      "decokit": 5036,
      "fromage": 5037,
      "petrin": 5038,
      "forest": 5039,
      "stimu": 5040,
      "50x50": 5041,
      "44x": 5042,
      "occo": 5043,
      "98x70x40": 5044,
      "160x225": 5045,
      "thomas": 5046,
      "kian": 5047,
      "41x": 5048,
      "80x160cm": 5049,
      "51x": 5050,
      "decorations": 5051,
      "courbe": 5052,
      "45x45cm": 5053,
      "placards": 5054,
      "72l": 5055,
      "activites": 5056,
      "babysom": 5057,
      "97x": 5058,
      "jacu": 5059,
      "bloque": 5060,
      "etude": 5061,
      "modulables": 5062,
      "watt": 5063,
      "camille": 5064,
      "etendage": 5065,
      "verticale": 5066,
      "instal": 5067,
      "casquette": 5068,
      "320go": 5069,
      "variable": 5070,
      "gratu": 5071,
      "omega": 5072,
      "boutons": 5073,
      "losange": 5074,
      "circuit": 5075,
      "hxlxp": 5076,
      "indigo": 5077,
      "incurve": 5078,
      "yaourtiere": 5079,
      "assorti": 5080,
      "cactus": 5081,
      "innovagoods": 5082,
      "capsules": 5083,
      "tufte": 5084,
      "vibrante": 5085,
      "inspiration": 5086,
      "autrefois": 5087,
      "renove": 5088,
      "peindre": 5089,
      "bjorn": 5090,
      "311": 5091,
      "400w": 5092,
      "560": 5093,
      "66x": 5094,
      "8mm": 5095,
      "96x": 5096,
      "alas": 5097,
      "aid": 5098,
      "ddr": 5099,
      "econ": 5100,
      "ida": 5101,
      "kal": 5102,
      "kra": 5103,
      "khy": 5104,
      "lb": 5105,
      "mg": 5106,
      "mul": 5107,
      "ode": 5108,
      "p40": 5109,
      "pite": 5110,
      "qled": 5111,
      "rb": 5112,
      "rk": 5113,
      "twin": 5114,
      "wor": 5115,
      "wel": 5116,
      "defro": 5117,
      "isation": 5118,
      "outil": 5119,
      "envir": 5120,
      "infer": 5121,
      "infin": 5122,
      "inline": 5123,
      "injecteur": 5124,
      "chissant": 5125,
      "lily": 5126,
      "vege": 5127,
      "vesa": 5128,
      "urbang": 5129,
      "arron": 5130,
      "side": 5131,
      "mos": 5132,
      "rog": 5133,
      "rice": 5134,
      "soy": 5135,
      "baya": 5136,
      "contour": 5137,
      "cana": 5138,
      "canne": 5139,
      "cannage": 5140,
      "vik": 5141,
      "ceur": 5142,
      "rail": 5143,
      "ith": 5144,
      "dila": 5145,
      "diva": 5146,
      "10m": 5147,
      "12l": 5148,
      "vas": 5149,
      "rondo": 5150,
      "etterie": 5151,
      "mark": 5152,
      "marily": 5153,
      "gol": 5154,
      "tren": 5155,
      "70w": 5156,
      "154": 5157,
      "159": 5158,
      "bulaire": 5159,
      "1300": 5160,
      "bristo": 5161,
      "braun": 5162,
      "ady": 5163,
      "pig": 5164,
      "ingham": 5165,
      "poussi": 5166,
      "compris": 5167,
      "dec0": 5168,
      "declasse": 5169,
      "24x": 5170,
      "amourde": 5171,
      "phar": 5172,
      "jardi": 5173,
      "russe": 5174,
      "19cm": 5175,
      "souples": 5176,
      "lavee": 5177,
      "batteur": 5178,
      "transpir": 5179,
      "grange": 5180,
      "unamourde": 5181,
      "crea": 5182,
      "sham": 5183,
      "basket": 5184,
      "disques": 5185,
      "2x80": 5186,
      "40x40cm": 5187,
      "hydro": 5188,
      "tubulaire": 5189,
      "gaufres": 5190,
      "46cm": 5191,
      "encastre": 5192,
      "autocol": 5193,
      "50x70cm": 5194,
      "44db": 5195,
      "collector": 5196,
      "120x30": 5197,
      "bellecour": 5198,
      "precis": 5199,
      "jupite": 5200,
      "iphone12": 5201,
      "calin": 5202,
      "thermosensible": 5203,
      "option": 5204,
      "garden": 5205,
      "80x40cm": 5206,
      "dessert": 5207,
      "courroie": 5208,
      "56x": 5209,
      "lounge": 5210,
      "graphie": 5211,
      "skin": 5212,
      "robinetterie": 5213,
      "oiseau": 5214,
      "playmobil": 5215,
      "malwa": 5216,
      "issante": 5217,
      "mario": 5218,
      "family": 5219,
      "bouleau": 5220,
      "edge": 5221,
      "passepoil": 5222,
      "wall": 5223,
      "puccini": 5224,
      "papillons": 5225,
      "losanges": 5226,
      "pixma": 5227,
      "superieur": 5228,
      "elegance": 5229,
      "smeg": 5230,
      "moustiquaire": 5231,
      "stalgast": 5232,
      "vegas": 5233,
      "marocain": 5234,
      "utilisation": 5235,
      "sophie": 5236,
      "ottoman": 5237,
      "wireless": 5238,
      "chevron": 5239,
      "pyramide": 5240,
      "rj45": 5241,
      "sensation": 5242,
      "framboise": 5243,
      "gourmet": 5244,
      "chapeaux": 5245,
      "aigu": 5246,
      "essuie": 5247,
      "buckingham": 5248,
      "feuillage": 5249,
      "lo40xla40xh": 5250,
      "crapaud": 5251,
      "polyvalente": 5252,
      "defroisseur": 5253,
      "urbanglide": 5254,
      "marilyn": 5255,
      "bristol": 5256,
      "unamourdetapis": 5257,
      "jupiter": 5258,
      "10x": 5259,
      "390": 5260,
      "380": 5261,
      "350w": 5262,
      "640": 5263,
      "665": 5264,
      "7200w": 5265,
      "8x": 5266,
      "8000": 5267,
      "92x": 5268,
      "aman": 5269,
      "bie": 5270,
      "ez": 5271,
      "emb": 5272,
      "eveil": 5273,
      "fn": 5274,
      "fol": 5275,
      "gira": 5276,
      "h30": 5277,
      "hab": 5278,
      "icu": 5279,
      "kl": 5280,
      "kin": 5281,
      "mbe": 5282,
      "mise": 5283,
      "mhz": 5284,
      "ow": 5285,
      "omb": 5286,
      "pb": 5287,
      "pant": 5288,
      "rw": 5289,
      "s10": 5290,
      "spect": 5291,
      "ua": 5292,
      "won": 5293,
      "leger": 5294,
      "redu": 5295,
      "anc": 5296,
      "analo": 5297,
      "dee": 5298,
      "denim": 5299,
      "iss": 5300,
      "istre": 5301,
      "enreg": 5302,
      "lagrange": 5303,
      "chron": 5304,
      "chanti": 5305,
      "semain": 5306,
      "aul": 5307,
      "auvent": 5308,
      "liant": 5309,
      "sig": 5310,
      "roid": 5311,
      "miques": 5312,
      "mitee": 5313,
      "grave": 5314,
      "rik": 5315,
      "bocal": 5316,
      "sofa": 5317,
      "camel": 5318,
      "cabrio": 5319,
      "sue": 5320,
      "canisse": 5321,
      "stret": 5322,
      "pota": 5323,
      "poker": 5324,
      "ffin": 5325,
      "204": 5326,
      "vidan": 5327,
      "viders": 5328,
      "tess": 5329,
      "pale": 5330,
      "rain": 5331,
      "ssage": 5332,
      "parleurs": 5333,
      "dividers": 5334,
      "rangemen": 5335,
      "bureaux": 5336,
      "fier": 5337,
      "mousseur": 5338,
      "bia": 5339,
      "mars": 5340,
      "percaline": 5341,
      "goo": 5342,
      "douille": 5343,
      "182": 5344,
      "progres": 5345,
      "dog": 5346,
      "exer": 5347,
      "ultimate": 5348,
      "muraux": 5349,
      "13c": 5350,
      "bandes": 5351,
      "oreilles": 5352,
      "pantal": 5353,
      "traite": 5354,
      "35l": 5355,
      "seri": 5356,
      "serrure": 5357,
      "amour": 5358,
      "tension": 5359,
      "tencel": 5360,
      "microsoft": 5361,
      "longhi": 5362,
      "sydney": 5363,
      "monte": 5364,
      "monsieur": 5365,
      "onnement": 5366,
      "240cm": 5367,
      "abstra": 5368,
      "transformable": 5369,
      "173": 5370,
      "gente": 5371,
      "imprimes": 5372,
      "60x90cm": 5373,
      "clear": 5374,
      "asma": 5375,
      "rembourres": 5376,
      "elsa": 5377,
      "pivotantes": 5378,
      "planches": 5379,
      "hibou": 5380,
      "multifonctionnel": 5381,
      "combi": 5382,
      "guide": 5383,
      "120x60x": 5384,
      "30x30x1": 5385,
      "120x180cm": 5386,
      "80x80": 5387,
      "vance": 5388,
      "integral": 5389,
      "tracteur": 5390,
      "courts": 5391,
      "60x120cm": 5392,
      "louna": 5393,
      "activite": 5394,
      "evolution": 5395,
      "67x": 5396,
      "jersy": 5397,
      "start": 5398,
      "bbs": 5399,
      "ethan": 5400,
      "universelle": 5401,
      "vitalspring": 5402,
      "videoprojecteur": 5403,
      "amazon": 5404,
      "nylon": 5405,
      "darina": 5406,
      "scur": 5407,
      "artistiques": 5408,
      "oxford": 5409,
      "antiderapants": 5410,
      "smile": 5411,
      "190x80": 5412,
      "flottant": 5413,
      "leonie": 5414,
      "obscur": 5415,
      "faitout": 5416,
      "fantasy": 5417,
      "affiche": 5418,
      "energy": 5419,
      "phares": 5420,
      "superieure": 5421,
      "elegante": 5422,
      "bridge": 5423,
      "magic": 5424,
      "profile": 5425,
      "wander": 5426,
      "freezer": 5427,
      "ventouse": 5428,
      "brooklyn": 5429,
      "kronberg": 5430,
      "emilia": 5431,
      "bianko": 5432,
      "biberon": 5433,
      "cyclonique": 5434,
      "panasonic": 5435,
      "educa": 5436,
      "athena": 5437,
      "embrasse": 5438,
      "jacuzzi": 5439,
      "gratuite": 5440,
      "alaska": 5441,
      "precision": 5442,
      "girafe": 5443,
      "icub": 5444,
      "semainier": 5445,
      "cabriolet": 5446,
      "vidange": 5447,
      "40x2": 5448,
      "42x": 5449,
      "4gb": 5450,
      "5g": 5451,
      "5v": 5452,
      "52x": 5453,
      "6m": 5454,
      "a5": 5455,
      "ambre": 5456,
      "bble": 5457,
      "bir": 5458,
      "dl": 5459,
      "dn": 5460,
      "evo": 5461,
      "fw": 5462,
      "flip": 5463,
      "gus": 5464,
      "hir": 5465,
      "kir": 5466,
      "kka": 5467,
      "lisseur": 5468,
      "p2": 5469,
      "pw": 5470,
      "pneu": 5471,
      "rdt": 5472,
      "tb": 5473,
      "tg": 5474,
      "tp": 5475,
      "visse": 5476,
      "xr": 5477,
      "lee": 5478,
      "ready": 5479,
      "team": 5480,
      "teddy": 5481,
      "debloque": 5482,
      "isie": 5483,
      "enrou": 5484,
      "inst": 5485,
      "orm": 5486,
      "sesham": 5487,
      "geor": 5488,
      "geree": 5489,
      "lian": 5490,
      "liam": 5491,
      "comics": 5492,
      "cosme": 5493,
      "moka": 5494,
      "nedis": 5495,
      "rigeree": 5496,
      "bole": 5497,
      "verso": 5498,
      "vermont": 5499,
      "solu": 5500,
      "bab": 5501,
      "149": 5502,
      "control": 5503,
      "anton": 5504,
      "forge": 5505,
      "pochette": 5506,
      "20m": 5507,
      "viande": 5508,
      "chel": 5509,
      "peppa": 5510,
      "nizza": 5511,
      "vala": 5512,
      "30w": 5513,
      "fiber": 5514,
      "bouc": 5515,
      "187": 5516,
      "issement": 5517,
      "haus": 5518,
      "nofrost": 5519,
      "extre": 5520,
      "151": 5521,
      "15l": 5522,
      "but": 5523,
      "manche": 5524,
      "steam": 5525,
      "here": 5526,
      "heur": 5527,
      "minist": 5528,
      "elephant": 5529,
      "0x250": 5530,
      "aleatoire": 5531,
      "bank": 5532,
      "pandora": 5533,
      "advance": 5534,
      "surfaces": 5535,
      "25m": 5536,
      "rappe": 5537,
      "lars": 5538,
      "thrust": 5539,
      "tent": 5540,
      "tendeur": 5541,
      "pink": 5542,
      "refrigeree": 5543,
      "jardiniere": 5544,
      "prime": 5545,
      "prima": 5546,
      "protect": 5547,
      "anticalcaire": 5548,
      "undai": 5549,
      "abil": 5550,
      "telephones": 5551,
      "genoux": 5552,
      "2x18": 5553,
      "trois": 5554,
      "65w": 5555,
      "65cm": 5556,
      "ergonom": 5557,
      "pupit": 5558,
      "oll": 5559,
      "sonom": 5560,
      "sonores": 5561,
      "extension": 5562,
      "bert": 5563,
      "bergen": 5564,
      "60x30": 5565,
      "bonde": 5566,
      "bonheur": 5567,
      "hudson": 5568,
      "ella": 5569,
      "hybrid": 5570,
      "hyundai": 5571,
      "4812": 5572,
      "menta": 5573,
      "dossiers": 5574,
      "inclinables": 5575,
      "70x40x": 5576,
      "120x150": 5577,
      "origami": 5578,
      "thermosoft": 5579,
      "garnis": 5580,
      "41cm": 5581,
      "frontale": 5582,
      "bords": 5583,
      "zebre": 5584,
      "impermeabil": 5585,
      "kara": 5586,
      "module": 5587,
      "jade": 5588,
      "jamb": 5589,
      "water": 5590,
      "wash": 5591,
      "louise": 5592,
      "resistante": 5593,
      "evolutive": 5594,
      "balaur": 5595,
      "werkap": 5596,
      "branches": 5597,
      "xh80": 5598,
      "115x": 5599,
      "cinema": 5600,
      "coullis": 5601,
      "effiles": 5602,
      "prince": 5603,
      "99x": 5604,
      "neokit": 5605,
      "pont": 5606,
      "intensite": 5607,
      "azur": 5608,
      "composite": 5609,
      "vitrage": 5610,
      "twist": 5611,
      "pommeau": 5612,
      "fantaisie": 5613,
      "tournant": 5614,
      "aspire": 5615,
      "wild": 5616,
      "112x87x76": 5617,
      "encadree": 5618,
      "singer": 5619,
      "scandinavie": 5620,
      "agrumes": 5621,
      "nokia": 5622,
      "surpiq": 5623,
      "rayonnage": 5624,
      "ananas": 5625,
      "155x85x77": 5626,
      "intelligente": 5627,
      "hermetique": 5628,
      "world": 5629,
      "inferie": 5630,
      "pharma": 5631,
      "wonder": 5632,
      "enregistre": 5633,
      "progressive": 5634,
      "exerci": 5635,
      "ministyle": 5636,
      "thrustmaster": 5637,
      "pupitre": 5638,
      "garnissage": 5639,
      "werkapro": 5640,
      "235": 5641,
      "30x2": 5642,
      "590": 5643,
      "850": 5644,
      "875": 5645,
      "a51": 5646,
      "ailes": 5647,
      "cit": 5648,
      "cier": 5649,
      "dpi": 5650,
      "gina": 5651,
      "gants": 5652,
      "g630": 5653,
      "hen": 5654,
      "hil": 5655,
      "hig": 5656,
      "ik": 5657,
      "ips": 5658,
      "ificateur": 5659,
      "kan": 5660,
      "kyo": 5661,
      "lc": 5662,
      "lk": 5663,
      "l40x": 5664,
      "m1": 5665,
      "mstore": 5666,
      "odeur": 5667,
      "plo": 5668,
      "swi": 5669,
      "spas": 5670,
      "wm": 5671,
      "xie": 5672,
      "xvi": 5673,
      "xper": 5674,
      "legen": 5675,
      "rec": 5676,
      "remo": 5677,
      "lac": 5678,
      "tacha": 5679,
      "tahi": 5680,
      "melia": 5681,
      "mail": 5682,
      "marie": 5683,
      "austin": 5684,
      "lana": 5685,
      "cosmo": 5686,
      "motion": 5687,
      "roka": 5688,
      "mire": 5689,
      "allu": 5690,
      "neon": 5691,
      "rier": 5692,
      "riviera": 5693,
      "urer": 5694,
      "lova": 5695,
      "lo35x": 5696,
      "lithi": 5697,
      "cates": 5698,
      "camb": 5699,
      "cather": 5700,
      "coun": 5701,
      "coniques": 5702,
      "canive": 5703,
      "stop": 5704,
      "culaire": 5705,
      "bell": 5706,
      "beurer": 5707,
      "patin": 5708,
      "rade": 5709,
      "raison": 5710,
      "luci": 5711,
      "ito": 5712,
      "party": 5713,
      "parfait": 5714,
      "lotte": 5715,
      "ats": 5716,
      "124x": 5717,
      "50kg": 5718,
      "spin": 5719,
      "spho": 5720,
      "sacha": 5721,
      "safe": 5722,
      "ots": 5723,
      "lincol": 5724,
      "galettes": 5725,
      "pers": 5726,
      "100kg": 5727,
      "hobbs": 5728,
      "180x1": 5729,
      "proven": 5730,
      "protecteur": 5731,
      "doset": 5732,
      "dogue": 5733,
      "70l": 5734,
      "15w": 5735,
      "manette": 5736,
      "carna": 5737,
      "filtra": 5738,
      "pile": 5739,
      "45w": 5740,
      "sante": 5741,
      "terr": 5742,
      "rence": 5743,
      "rento": 5744,
      "2400": 5745,
      "thor": 5746,
      "phy": 5747,
      "recto": 5748,
      "kit15": 5749,
      "196": 5750,
      "brilliant": 5751,
      "supple": 5752,
      "sols": 5753,
      "statu": 5754,
      "40x60cm": 5755,
      "cord": 5756,
      "class": 5757,
      "pris": 5758,
      "cycle": 5759,
      "gaufre": 5760,
      "59x": 5761,
      "mouse": 5762,
      "mouton": 5763,
      "phospho": 5764,
      "sena": 5765,
      "43cm": 5766,
      "julio": 5767,
      "ario": 5768,
      "pattes": 5769,
      "160x220": 5770,
      "torren": 5771,
      "congelateurs": 5772,
      "90x50x": 5773,
      "ions": 5774,
      "vane": 5775,
      "maintien": 5776,
      "java": 5777,
      "relevables": 5778,
      "zenitech": 5779,
      "ditionne": 5780,
      "68x": 5781,
      "diamants": 5782,
      "gonfleur": 5783,
      "briques": 5784,
      "memorie": 5785,
      "brandy": 5786,
      "choirs": 5787,
      "livraison": 5788,
      "bbq": 5789,
      "91cm": 5790,
      "cocoon": 5791,
      "135x250": 5792,
      "frein": 5793,
      "pong": 5794,
      "coeurs": 5795,
      "regulation": 5796,
      "dalles": 5797,
      "fonctionnels": 5798,
      "citysports": 5799,
      "gobelets": 5800,
      "550gr": 5801,
      "sweetnight": 5802,
      "rella": 5803,
      "cadeau": 5804,
      "teintee": 5805,
      "romantique": 5806,
      "woofer": 5807,
      "renforcee": 5808,
      "pilvi": 5809,
      "100x150": 5810,
      "circulaire": 5811,
      "ancien": 5812,
      "amplificateur": 5813,
      "contreplaque": 5814,
      "delicates": 5815,
      "dinosaure": 5816,
      "112x87x76cm": 5817,
      "opaque": 5818,
      "carafe": 5819,
      "skate": 5820,
      "kilim": 5821,
      "abdominaux": 5822,
      "hexagon": 5823,
      "chute": 5824,
      "halogene": 5825,
      "lisbona": 5826,
      "chypre": 5827,
      "environnement": 5828,
      "trendy": 5829,
      "poussiere": 5830,
      "russell": 5831,
      "stretch": 5832,
      "rangementent": 5833,
      "pantalons": 5834,
      "serigraphie": 5835,
      "visseuse": 5836,
      "bouclette": 5837,
      "jambes": 5838,
      "coullissants": 5839,
      "pharmacie": 5840,
      "high": 5841,
      "tahiti": 5842,
      "lo35xla": 5843,
      "caniveau": 5844,
      "lincoln": 5845,
      "carnaval": 5846,
      "phosphores": 5847,
      "2b": 5848,
      "3200": 5849,
      "530": 5850,
      "6000": 5851,
      "7x": 5852,
      "910": 5853,
      "ach": 5854,
      "aqu": 5855,
      "avi": 5856,
      "billes": 5857,
      "cissant": 5858,
      "dm": 5859,
      "dx": 5860,
      "ein": 5861,
      "ear": 5862,
      "ecu": 5863,
      "fira": 5864,
      "frappe": 5865,
      "ggy": 5866,
      "gotherapie": 5867,
      "h150": 5868,
      "hill": 5869,
      "imac": 5870,
      "lour": 5871,
      "ljb": 5872,
      "mh": 5873,
      "mk": 5874,
      "mant": 5875,
      "mun": 5876,
      "nit": 5877,
      "ote": 5878,
      "p30": 5879,
      "rr": 5880,
      "tronic": 5881,
      "ube": 5882,
      "vs": 5883,
      "v60": 5884,
      "wk": 5885,
      "wing": 5886,
      "x5": 5887,
      "yy": 5888,
      "zel": 5889,
      "recep": 5890,
      "devi": 5891,
      "enix": 5892,
      "enroule": 5893,
      "ergotherapie": 5894,
      "cmx": 5895,
      "bles": 5896,
      "chlo": 5897,
      "chris": 5898,
      "meta": 5899,
      "medal": 5900,
      "oral": 5901,
      "magaz": 5902,
      "aura": 5903,
      "ties": 5904,
      "lire": 5905,
      "coin": 5906,
      "come": 5907,
      "sif": 5908,
      "silamp": 5909,
      "quo": 5910,
      "quer": 5911,
      "avel": 5912,
      "roc": 5913,
      "roi": 5914,
      "alfen": 5915,
      "alyx": 5916,
      "negro": 5917,
      "bombe": 5918,
      "ack": 5919,
      "action": 5920,
      "cales": 5921,
      "couffin": 5922,
      "concorde": 5923,
      "chaine": 5924,
      "60h": 5925,
      "fornia": 5926,
      "pol": 5927,
      "bek": 5928,
      "beck": 5929,
      "beka": 5930,
      "platin": 5931,
      "lum": 5932,
      "peau": 5933,
      "dak": 5934,
      "tissoire": 5935,
      "121x": 5936,
      "tos": 5937,
      "16cm": 5938,
      "160x1": 5939,
      "nite": 5940,
      "dun": 5941,
      "sachet": 5942,
      "fication": 5943,
      "mousses": 5944,
      "bike": 5945,
      "game": 5946,
      "perceuse": 5947,
      "100l": 5948,
      "188": 5949,
      "lettres": 5950,
      "bus": 5951,
      "manda": 5952,
      "heli": 5953,
      "cart": 5954,
      "0x280": 5955,
      "colonnes": 5956,
      "isees": 5957,
      "eupra": 5958,
      "panda": 5959,
      "epaisse": 5960,
      "pia": 5961,
      "ington": 5962,
      "compan": 5963,
      "35xh": 5964,
      "sero": 5965,
      "think": 5966,
      "colors": 5967,
      "193": 5968,
      "197": 5969,
      "blier": 5970,
      "nao": 5971,
      "battantes": 5972,
      "unique": 5973,
      "hdtv": 5974,
      "5x70": 5975,
      "relaxant": 5976,
      "polycarbon": 5977,
      "prixton": 5978,
      "32gb": 5979,
      "fonctionnelle": 5980,
      "mmer": 5981,
      "denver": 5982,
      "3600w": 5983,
      "fourni": 5984,
      "stasia": 5985,
      "ergonomi": 5986,
      "55kg": 5987,
      "berlin": 5988,
      "lavage": 5989,
      "stratus": 5990,
      "hyg": 5991,
      "23cm": 5992,
      "48l": 5993,
      "frozen": 5994,
      "hell": 5995,
      "guer": 5996,
      "danube": 5997,
      "senteur": 5998,
      "33cm": 5999,
      "coqueli": 6000,
      "lente": 6001,
      "thermostatique": 6002,
      "garage": 6003,
      "ryobi": 6004,
      "90x140": 6005,
      "graine": 6006,
      "grafen": 6007,
      "47x": 6008,
      "frn": 6009,
      "250w": 6010,
      "karcher": 6011,
      "51cm": 6012,
      "45x70": 6013,
      "mirac": 6014,
      "brasero": 6015,
      "activisco": 6016,
      "73cm": 6017,
      "skagen": 6018,
      "ocea": 6019,
      "oceane": 6020,
      "escalade": 6021,
      "3x3m": 6022,
      "connecteur": 6023,
      "living": 6024,
      "sorrento": 6025,
      "ethno": 6026,
      "philip": 6027,
      "playstation": 6028,
      "harper": 6029,
      "harmon": 6030,
      "malm": 6031,
      "ip44": 6032,
      "99x40": 6033,
      "freins": 6034,
      "derapant": 6035,
      "sauc": 6036,
      "bellagio": 6037,
      "excellent": 6038,
      "flottantes": 6039,
      "variante": 6040,
      "smooth": 6041,
      "convecteur": 6042,
      "ziclean": 6043,
      "delta": 6044,
      "strip": 6045,
      "california": 6046,
      "floral": 6047,
      "jonc": 6048,
      "09020": 6049,
      "subwoofer": 6050,
      "goutte": 6051,
      "incluse": 6052,
      "orthopediques": 6053,
      "motorise": 6054,
      "giulia": 6055,
      "conference": 6056,
      "13_000": 6057,
      "filament": 6058,
      "encastrer": 6059,
      "collectors": 6060,
      "iphone12pro": 6061,
      "ombrage": 6062,
      "reducteur": 6063,
      "ancrage": 6064,
      "analogique": 6065,
      "30x30x170": 6066,
      "obscurcissant": 6067,
      "teamson": 6068,
      "instant": 6069,
      "inferieur": 6070,
      "l40xl": 6071,
      "catherina": 6072,
      "luciana": 6073,
      "delicatessa": 6074,
      "medaline": 6075,
      "alfena": 6076,
      "eupraxie": 6077,
      "polycarbonate": 6078,
      "grafeno": 6079,
      "00x": 6080,
      "1100": 6081,
      "2d": 6082,
      "2g": 6083,
      "2200": 6084,
      "213": 6085,
      "217": 6086,
      "413": 6087,
      "5e": 6088,
      "5h": 6089,
      "6w": 6090,
      "635": 6091,
      "712": 6092,
      "aar": 6093,
      "a20": 6094,
      "a10": 6095,
      "aven": 6096,
      "aeg": 6097,
      "b1": 6098,
      "cry": 6099,
      "dh": 6100,
      "dangle": 6101,
      "gc": 6102,
      "gp": 6103,
      "git": 6104,
      "ido": 6105,
      "ibro": 6106,
      "itien": 6107,
      "ivar": 6108,
      "j5": 6109,
      "l60": 6110,
      "nil": 6111,
      "pm": 6112,
      "pine": 6113,
      "plis": 6114,
      "rca": 6115,
      "s3": 6116,
      "sr": 6117,
      "scot": 6118,
      "tino": 6119,
      "tru": 6120,
      "tnt": 6121,
      "vino": 6122,
      "vinc": 6123,
      "villa": 6124,
      "wester": 6125,
      "xx": 6126,
      "x100": 6127,
      "ync": 6128,
      "zoe": 6129,
      "remor": 6130,
      "repon": 6131,
      "recover": 6132,
      "delonghi": 6133,
      "isa": 6134,
      "inca": 6135,
      "lay": 6136,
      "laura": 6137,
      "tateur": 6138,
      "tassi": 6139,
      "irs": 6140,
      "chil": 6141,
      "metri": 6142,
      "section": 6143,
      "mam": 6144,
      "mael": 6145,
      "matieres": 6146,
      "marelle": 6147,
      "madila": 6148,
      "etnik": 6149,
      "tification": 6150,
      "lic": 6151,
      "vede": 6152,
      "urs": 6153,
      "urne": 6154,
      "001": 6155,
      "003": 6156,
      "cox": 6157,
      "como": 6158,
      "cock": 6159,
      "sign": 6160,
      "quille": 6161,
      "mop": 6162,
      "mike": 6163,
      "alfa": 6164,
      "riture": 6165,
      "apul": 6166,
      "bow": 6167,
      "version": 6168,
      "verseuse": 6169,
      "acapul": 6170,
      "solar": 6171,
      "catal": 6172,
      "cavis": 6173,
      "bah": 6174,
      "bass": 6175,
      "suite": 6176,
      "stress": 6177,
      "storm": 6178,
      "pola": 6179,
      "polar": 6180,
      "2011": 6181,
      "cuba": 6182,
      "vif": 6183,
      "celona": 6184,
      "pay": 6185,
      "pard": 6186,
      "parad": 6187,
      "partir": 6188,
      "dae": 6189,
      "dium": 6190,
      "diane": 6191,
      "8016": 6192,
      "1010": 6193,
      "modes": 6194,
      "12kg": 6195,
      "tole": 6196,
      "tola": 6197,
      "tokyo": 6198,
      "50m": 6199,
      "spi": 6200,
      "sata": 6201,
      "satel": 6202,
      "vague": 6203,
      "route": 6204,
      "linke": 6205,
      "galets": 6206,
      "100g": 6207,
      "bouts": 6208,
      "bari": 6209,
      "barnum": 6210,
      "barcelona": 6211,
      "letta": 6212,
      "auxili": 6213,
      "noct": 6214,
      "exper": 6215,
      "150x190": 6216,
      "bum": 6217,
      "mani": 6218,
      "head": 6219,
      "comma": 6220,
      "133x": 6221,
      "micile": 6222,
      "pane": 6223,
      "panieres": 6224,
      "poupee": 6225,
      "trainer": 6226,
      "2500": 6227,
      "2500w": 6228,
      "22x": 6229,
      "microstar": 6230,
      "nespresso": 6231,
      "inthe": 6232,
      "26l": 6233,
      "monster": 6234,
      "ecriture": 6235,
      "27x": 6236,
      "tranche": 6237,
      "crepiere": 6238,
      "polyrotin": 6239,
      "try": 6240,
      "32m": 6241,
      "dencre": 6242,
      "viscoelas": 6243,
      "viscosystem": 6244,
      "glow": 6245,
      "40x40x": 6246,
      "28l": 6247,
      "siere": 6248,
      "cordage": 6249,
      "bonbon": 6250,
      "broche": 6251,
      "droits": 6252,
      "famili": 6253,
      "wii": 6254,
      "venise": 6255,
      "venitien": 6256,
      "helsin": 6257,
      "combines": 6258,
      "capitone": 6259,
      "morocco": 6260,
      "encastrables": 6261,
      "30x40": 6262,
      "ariane": 6263,
      "120x160cm": 6264,
      "fermetee": 6265,
      "calor": 6266,
      "37cm": 6267,
      "joueur": 6268,
      "ballon": 6269,
      "170cm": 6270,
      "lls": 6271,
      "cerisier": 6272,
      "certification": 6273,
      "bacteri": 6274,
      "77x50": 6275,
      "80x40": 6276,
      "particule": 6277,
      "toria": 6278,
      "winnie": 6279,
      "synchron": 6280,
      "hors": 6281,
      "graisse": 6282,
      "78x": 6283,
      "volume": 6284,
      "omy": 6285,
      "ecoclean": 6286,
      "128x70x40": 6287,
      "diamant": 6288,
      "argentes": 6289,
      "argentier": 6290,
      "swing": 6291,
      "jean": 6292,
      "jacinthe": 6293,
      "ergolatex": 6294,
      "pyja": 6295,
      "connex": 6296,
      "fixes": 6297,
      "terrain": 6298,
      "66cm": 6299,
      "180x60x": 6300,
      "televiseurs": 6301,
      "bilbao": 6302,
      "santor": 6303,
      "69x": 6304,
      "cachemire": 6305,
      "minute": 6306,
      "ltb": 6307,
      "bouledogue": 6308,
      "rabattables": 6309,
      "numerisees": 6310,
      "marchepied": 6311,
      "landau": 6312,
      "funny": 6313,
      "antiderapante": 6314,
      "flamme": 6315,
      "parapluies": 6316,
      "azer": 6317,
      "lombaires": 6318,
      "originale": 6319,
      "fixations": 6320,
      "football": 6321,
      "dragon": 6322,
      "louisa": 6323,
      "romane": 6324,
      "cellule": 6325,
      "etamine": 6326,
      "50x120cm": 6327,
      "reconditionne": 6328,
      "zigzag": 6329,
      "accroche": 6330,
      "florence": 6331,
      "ambiante": 6332,
      "ushia": 6333,
      "assemb": 6334,
      "small": 6335,
      "cds0": 6336,
      "180x90x76": 6337,
      "fumoir": 6338,
      "honor": 6339,
      "quatre": 6340,
      "evercross": 6341,
      "glissiere": 6342,
      "mauve": 6343,
      "spacieux": 6344,
      "installation": 6345,
      "assortiment": 6346,
      "injecteurs": 6347,
      "canadien": 6348,
      "transpirant": 6349,
      "70x40x76": 6350,
      "impermeabilise": 6351,
      "enregistreur": 6352,
      "swift": 6353,
      "lithium": 6354,
      "statuette": 6355,
      "recepteur": 6356,
      "crystal": 6357,
      "ibroz": 6358,
      "remorque": 6359,
      "repondeur": 6360,
      "tassimo": 6361,
      "acapulco": 6362,
      "catalyse": 6363,
      "helsinki": 6364,
      "1_": 6365,
      "1cm": 6366,
      "312": 6367,
      "760": 6368,
      "72x": 6369,
      "850w": 6370,
      "9h": 6371,
      "95cm": 6372,
      "a60": 6373,
      "aerateur": 6374,
      "aoc": 6375,
      "b3": 6376,
      "bcam": 6377,
      "cw": 6378,
      "cran": 6379,
      "eree": 6380,
      "eziclean": 6381,
      "fushia": 6382,
      "gsa": 6383,
      "gats": 6384,
      "kp": 6385,
      "kane": 6386,
      "lor": 6387,
      "msi": 6388,
      "nv": 6389,
      "nac": 6390,
      "ole": 6391,
      "ody": 6392,
      "pn": 6393,
      "pt": 6394,
      "pus": 6395,
      "sdb": 6396,
      "tfi": 6397,
      "vor": 6398,
      "villon": 6399,
      "vhs": 6400,
      "vtt": 6401,
      "x3": 6402,
      "xt": 6403,
      "rene": 6404,
      "repe": 6405,
      "reming": 6406,
      "rechamp": 6407,
      "ondule": 6408,
      "onyx": 6409,
      "ister": 6410,
      "invite": 6411,
      "erre": 6412,
      "lake": 6413,
      "taj": 6414,
      "taches": 6415,
      "cht": 6416,
      "melo": 6417,
      "seul": 6418,
      "sequin": 6419,
      "majes": 6420,
      "getique": 6421,
      "tio": 6422,
      "tit": 6423,
      "tivo": 6424,
      "vehi": 6425,
      "esso": 6426,
      "esync": 6427,
      "002": 6428,
      "006": 6429,
      "lano": 6430,
      "coax": 6431,
      "sitra": 6432,
      "mod": 6433,
      "alli": 6434,
      "neau": 6435,
      "neat": 6436,
      "neva": 6437,
      "ria": 6438,
      "ribi": 6439,
      "bob": 6440,
      "boss": 6441,
      "2008": 6442,
      "versa": 6443,
      "mpes": 6444,
      "sop": 6445,
      "socie": 6446,
      "sometre": 6447,
      "cami": 6448,
      "cast": 6449,
      "coucha": 6450,
      "couche": 6451,
      "cons": 6452,
      "suz": 6453,
      "restaur": 6454,
      "pod": 6455,
      "cuite": 6456,
      "vitres": 6457,
      "bee": 6458,
      "beer": 6459,
      "bela": 6460,
      "pamp": 6461,
      "pavillon": 6462,
      "placage": 6463,
      "salva": 6464,
      "luki": 6465,
      "itor": 6466,
      "pari": 6467,
      "parfumee": 6468,
      "lots": 6469,
      "divan": 6470,
      "mbps": 6471,
      "1050": 6472,
      "1098": 6473,
      "100x100": 6474,
      "toscan": 6475,
      "tower": 6476,
      "tomy": 6477,
      "totale": 6478,
      "toaster": 6479,
      "16x": 6480,
      "1600w": 6481,
      "safran": 6482,
      "piston": 6483,
      "30m": 6484,
      "30kg": 6485,
      "30mm": 6486,
      "tons": 6487,
      "round": 6488,
      "texas": 6489,
      "marques": 6490,
      "gaya": 6491,
      "bleues": 6492,
      "boudd": 6493,
      "ables": 6494,
      "trempes": 6495,
      "propane": 6496,
      "dock": 6497,
      "dometre": 6498,
      "down": 6499,
      "domicile": 6500,
      "bara": 6501,
      "ext": 6502,
      "exoti": 6503,
      "bulles": 6504,
      "mantee": 6505,
      "multicolores": 6506,
      "elea": 6507,
      "temperee": 6508,
      "train": 6509,
      "25xh": 6510,
      "compteur": 6511,
      "charniere": 6512,
      "dimmable": 6513,
      "phi": 6514,
      "222": 6515,
      "visiteur": 6516,
      "refres": 6517,
      "micros": 6518,
      "microphone": 6519,
      "75l": 6520,
      "199": 6521,
      "brillante": 6522,
      "deshumidificateur": 6523,
      "eclip": 6524,
      "eccox": 6525,
      "batteri": 6526,
      "240go": 6527,
      "capri": 6528,
      "creation": 6529,
      "feer": 6530,
      "nuance": 6531,
      "170x": 6532,
      "2x90": 6533,
      "2x70x190": 6534,
      "40x80": 6535,
      "artik": 6536,
      "kas": 6537,
      "21l": 6538,
      "hyp": 6539,
      "hylia": 6540,
      "48400": 6541,
      "0x240cm": 6542,
      "croix": 6543,
      "63cm": 6544,
      "fash": 6545,
      "triangulaire": 6546,
      "hio": 6547,
      "wich": 6548,
      "wiko": 6549,
      "finn": 6550,
      "airplus": 6551,
      "struct": 6552,
      "capitonnes": 6553,
      "foam": 6554,
      "focus": 6555,
      "techwood": 6556,
      "maximum": 6557,
      "danse": 6558,
      "danseuse": 6559,
      "64x": 6560,
      "120x40": 6561,
      "tana": 6562,
      "phoenix": 6563,
      "sensi": 6564,
      "30x50cm": 6565,
      "gers": 6566,
      "weng": 6567,
      "webcam": 6568,
      "ceruse": 6569,
      "39l": 6570,
      "80x60": 6571,
      "front": 6572,
      "borg": 6573,
      "occultants": 6574,
      "toiles": 6575,
      "macrame": 6576,
      "couronne": 6577,
      "160x80x": 6578,
      "orthopedie": 6579,
      "ecolier": 6580,
      "pedales": 6581,
      "fenetre": 6582,
      "norme": 6583,
      "nordi": 6584,
      "3x4m": 6585,
      "stars": 6586,
      "flexi": 6587,
      "plusieur": 6588,
      "4x4": 6589,
      "fixer": 6590,
      "hesiode": 6591,
      "180x85x": 6592,
      "bolt": 6593,
      "adhesive": 6594,
      "ajustables": 6595,
      "210cm": 6596,
      "purificateur": 6597,
      "h2o": 6598,
      "gorille": 6599,
      "extractible": 6600,
      "falcon": 6601,
      "effie": 6602,
      "galon": 6603,
      "freesync": 6604,
      "selec": 6605,
      "ventilee": 6606,
      "kubu": 6607,
      "vinyles": 6608,
      "standards": 6609,
      "drape": 6610,
      "36x75": 6611,
      "gsm": 6612,
      "origine": 6613,
      "nuages": 6614,
      "joystic": 6615,
      "singe": 6616,
      "balconnet": 6617,
      "tillon": 6618,
      "milano": 6619,
      "12_00008": 6620,
      "crazy": 6621,
      "glam": 6622,
      "monochrome": 6623,
      "pulsometre": 6624,
      "0919": 6625,
      "direct": 6626,
      "aimantee": 6627,
      "gratt": 6628,
      "isolant": 6629,
      "astoria": 6630,
      "38x38": 6631,
      "clipso": 6632,
      "appuie": 6633,
      "stripe": 6634,
      "articulee": 6635,
      "energetique": 6636,
      "pearl": 6637,
      "creuses": 6638,
      "accroches": 6639,
      "plexi": 6640,
      "graphiques": 6641,
      "inverses": 6642,
      "equipe": 6643,
      "equivalent": 6644,
      "elastiques": 6645,
      "eclaire": 6646,
      "125x150cm": 6647,
      "70x160cm": 6648,
      "fausse": 6649,
      "ridder": 6650,
      "ignifuge": 6651,
      "seattle": 6652,
      "40x120x98": 6653,
      "vibration": 6654,
      "perforee": 6655,
      "96x50x76": 6656,
      "arrondi": 6657,
      "habillage": 6658,
      "graveur": 6659,
      "abstrait": 6660,
      "educatif": 6661,
      "enroulable": 6662,
      "cosmetique": 6663,
      "bolero": 6664,
      "country": 6665,
      "patins": 6666,
      "filtration": 6667,
      "torrenta": 6668,
      "phosphorescent": 6669,
      "devidoir": 6670,
      "magazines": 6671,
      "aaron": 6672,
      "vedette": 6673,
      "cocktail": 6674,
      "satellite": 6675,
      "bacterien": 6676,
      "gatsby": 6677,
      "remington": 6678,
      "rechampis": 6679,
      "essore": 6680,
      "neatness": 6681,
      "societe": 6682,
      "bouddha": 6683,
      "eclipse": 6684,
      "batteries": 6685,
      "nuancemeuble": 6686,
      "plusieurs": 6687,
      "010": 6688,
      "039": 6689,
      "2go": 6690,
      "490": 6691,
      "460": 6692,
      "4106": 6693,
      "6a": 6694,
      "6p": 6695,
      "690": 6696,
      "645": 6697,
      "6000w": 6698,
      "720": 6699,
      "780": 6700,
      "9c": 6701,
      "960": 6702,
      "950": 6703,
      "90x2": 6704,
      "a3": 6705,
      "acm": 6706,
      "ava": 6707,
      "abeille": 6708,
      "bf": 6709,
      "blis": 6710,
      "bmw": 6711,
      "cinde": 6712,
      "cines": 6713,
      "clino": 6714,
      "dbeck": 6715,
      "evan": 6716,
      "elisa": 6717,
      "egio": 6718,
      "email": 6719,
      "fuse": 6720,
      "got": 6721,
      "gouttoir": 6722,
      "h1": 6723,
      "h25": 6724,
      "h180": 6725,
      "ites": 6726,
      "ika": 6727,
      "icy": 6728,
      "ios": 6729,
      "kb": 6730,
      "kr": 6731,
      "kro": 6732,
      "klax": 6733,
      "lson": 6734,
      "l47": 6735,
      "m4": 6736,
      "muni": 6737,
      "nin": 6738,
      "niture": 6739,
      "osa": 6740,
      "oak": 6741,
      "ogt": 6742,
      "ohio": 6743,
      "pette": 6744,
      "pun": 6745,
      "pfs": 6746,
      "rf": 6747,
      "rg": 6748,
      "rx": 6749,
      "rtx": 6750,
      "sv": 6751,
      "s21": 6752,
      "scd": 6753,
      "sms": 6754,
      "slow": 6755,
      "t3": 6756,
      "tmas": 6757,
      "vil": 6758,
      "wr": 6759,
      "wol": 6760,
      "winter": 6761,
      "willi": 6762,
      "zas": 6763,
      "leu": 6764,
      "remon": 6765,
      "reseau": 6766,
      "deen": 6767,
      "depli": 6768,
      "onie": 6769,
      "iste": 6770,
      "enclo": 6771,
      "erdeen": 6772,
      "lama": 6773,
      "cms": 6774,
      "tad": 6775,
      "tamp": 6776,
      "tablier": 6777,
      "chap": 6778,
      "mely": 6779,
      "seal": 6780,
      "malette": 6781,
      "lila": 6782,
      "liane": 6783,
      "ess": 6784,
      "lantes": 6785,
      "cola": 6786,
      "quage": 6787,
      "moo": 6788,
      "ros": 6789,
      "roche": 6790,
      "nemo": 6791,
      "ries": 6792,
      "apoth": 6793,
      "bogota": 6794,
      "lo50x": 6795,
      "vertes": 6796,
      "mp4": 6797,
      "lith": 6798,
      "soc": 6799,
      "bag": 6800,
      "bagu": 6801,
      "14cm": 6802,
      "convi": 6803,
      "suc": 6804,
      "sud": 6805,
      "restre": 6806,
      "strie": 6807,
      "podium": 6808,
      "podometre": 6809,
      "beur": 6810,
      "pala": 6811,
      "paso": 6812,
      "paquet": 6813,
      "anglais": 6814,
      "sall": 6815,
      "part": 6816,
      "peigne": 6817,
      "das": 6818,
      "dama": 6819,
      "tageres": 6820,
      "ato": 6821,
      "atrice": 6822,
      "tissage": 6823,
      "400x280": 6824,
      "10l": 6825,
      "102x": 6826,
      "tool": 6827,
      "somkit": 6828,
      "501": 6829,
      "nivala": 6830,
      "salade": 6831,
      "piscines": 6832,
      "305": 6833,
      "sonnette": 6834,
      "tapissee": 6835,
      "rousel": 6836,
      "marin": 6837,
      "gas": 6838,
      "gate": 6839,
      "gala": 6840,
      "gaby": 6841,
      "perfor": 6842,
      "boudin": 6843,
      "1800": 6844,
      "188cm": 6845,
      "barth": 6846,
      "hautes": 6847,
      "noble": 6848,
      "noki": 6849,
      "execu": 6850,
      "buff": 6851,
      "manique": 6852,
      "heat": 6853,
      "carpette": 6854,
      "carrousel": 6855,
      "ssion": 6856,
      "colon": 6857,
      "collier": 6858,
      "bry": 6859,
      "brac": 6860,
      "lysan": 6861,
      "panini": 6862,
      "plier": 6863,
      "hauteurs": 6864,
      "voies": 6865,
      "vogue": 6866,
      "epai": 6867,
      "pivo": 6868,
      "pichet": 6869,
      "251": 6870,
      "raccord": 6871,
      "terrestre": 6872,
      "reglette": 6873,
      "renard": 6874,
      "1801_": 6875,
      "35w": 6876,
      "3560": 6877,
      "rouges": 6878,
      "rette": 6879,
      "223": 6880,
      "227": 6881,
      "gano": 6882,
      "cket": 6883,
      "261": 6884,
      "26x": 6885,
      "longues": 6886,
      "monitor": 6887,
      "vina": 6888,
      "koala": 6889,
      "under": 6890,
      "5xh": 6891,
      "5x60x2": 6892,
      "571": 6893,
      "fee": 6894,
      "trousse": 6895,
      "tringles": 6896,
      "aberdeen": 6897,
      "dentelle": 6898,
      "174": 6899,
      "17l": 6900,
      "36kg": 6901,
      "3619": 6902,
      "2x100": 6903,
      "2x3m": 6904,
      "chargement": 6905,
      "corona": 6906,
      "old": 6907,
      "kate": 6908,
      "kala": 6909,
      "60x40cm": 6910,
      "plancher": 6911,
      "nettes": 6912,
      "vene": 6913,
      "venus": 6914,
      "carrees": 6915,
      "helga": 6916,
      "papa": 6917,
      "29x": 6918,
      "46l": 6919,
      "46db": 6920,
      "44mm": 6921,
      "phore": 6922,
      "linea": 6923,
      "lexon": 6924,
      "140x70cm": 6925,
      "john": 6926,
      "webaby": 6927,
      "77x": 6928,
      "quaires": 6929,
      "80x35": 6930,
      "winkel": 6931,
      "occult": 6932,
      "horse": 6933,
      "80x180": 6934,
      "250go": 6935,
      "78cm": 6936,
      "karo": 6937,
      "photophore": 6938,
      "james": 6939,
      "wax": 6940,
      "louse": 6941,
      "liege": 6942,
      "230v": 6943,
      "49cm": 6944,
      "68l": 6945,
      "fenix": 6946,
      "67cm": 6947,
      "brit": 6948,
      "prague": 6949,
      "starter": 6950,
      "plug": 6951,
      "essenzia": 6952,
      "artificielles": 6953,
      "180x80cm": 6954,
      "115cm": 6955,
      "booster": 6956,
      "fields": 6957,
      "btls": 6958,
      "malmo": 6959,
      "burg": 6960,
      "dreams": 6961,
      "optiplex": 6962,
      "marita": 6963,
      "cendres": 6964,
      "cotton": 6965,
      "telescope": 6966,
      "effe": 6967,
      "kitchenaid": 6968,
      "reves": 6969,
      "silent": 6970,
      "sauf": 6971,
      "pompier": 6972,
      "oxy": 6973,
      "valencia": 6974,
      "amefa": 6975,
      "kenya": 6976,
      "grosse": 6977,
      "intense": 6978,
      "artisanal": 6979,
      "azura": 6980,
      "walk": 6981,
      "waldbeck": 6982,
      "drawer": 6983,
      "gratter": 6984,
      "horizontale": 6985,
      "fouta": 6986,
      "200x90": 6987,
      "200x80": 6988,
      "renforcement": 6989,
      "senseo": 6990,
      "malaga": 6991,
      "plast": 6992,
      "tropical": 6993,
      "moustiquaires": 6994,
      "elitebook": 6995,
      "modernes": 6996,
      "tdlr": 6997,
      "opale": 6998,
      "180x220": 6999,
      "ambiance": 7000,
      "kong": 7001,
      "triangles": 7002,
      "tirelire": 7003,
      "vittoria": 7004,
      "eclat": 7005,
      "olaf": 7006,
      "31x31cm": 7007,
      "joey": 7008,
      "mallette": 7009,
      "recouvert": 7010,
      "celeste": 7011,
      "86x188cm": 7012,
      "cuillere": 7013,
      "europe": 7014,
      "ddr4": 7015,
      "vegetal": 7016,
      "soyeux": 7017,
      "vasques": 7018,
      "golden": 7019,
      "chantilly": 7020,
      "sigma": 7021,
      "google": 7022,
      "chelsea": 7023,
      "xperia": 7024,
      "legend": 7025,
      "lo35xla35xh": 7026,
      "thinkpad": 7027,
      "harmony": 7028,
      "l40xl40xh": 7029,
      "a20e": 7030,
      "avengers": 7031,
      "metriques": 7032,
      "bahia": 7033,
      "polaroid": 7034,
      "auxiliaire": 7035,
      "nocturne": 7036,
      "viscoelastic": 7037,
      "certifications": 7038,
      "azerty": 7039,
      "assemblage": 7040,
      "odysse": 7041,
      "vehicule": 7042,
      "sitram": 7043,
      "alliage": 7044,
      "camion": 7045,
      "restaurant": 7046,
      "selectif": 7047,
      "drapeau": 7048,
      "blister": 7049,
      "cinderella": 7050,
      "klaxon": 7051,
      "william": 7052,
      "enclos": 7053,
      "sealskin": 7054,
      "lo50xla": 7055,
      "executive": 7056,
      "lysandre": 7057,
      "1e": 7058,
      "1100w": 7059,
      "2a": 7060,
      "216": 7061,
      "260cm": 7062,
      "211": 7063,
      "238": 7064,
      "3c": 7065,
      "3kg": 7066,
      "6go": 7067,
      "7w": 7068,
      "840": 7069,
      "810": 7070,
      "9v": 7071,
      "93x": 7072,
      "ata": 7073,
      "abe": 7074,
      "afri": 7075,
      "areal": 7076,
      "axel": 7077,
      "bv": 7078,
      "bora": 7079,
      "brig": 7080,
      "cf": 7081,
      "cn": 7082,
      "cure": 7083,
      "cct": 7084,
      "dure": 7085,
      "elona": 7086,
      "emmy": 7087,
      "f0": 7088,
      "flat": 7089,
      "fatmo": 7090,
      "flix": 7091,
      "fkas": 7092,
      "g4": 7093,
      "gin": 7094,
      "gir": 7095,
      "hl": 7096,
      "hm": 7097,
      "hw": 7098,
      "h170": 7099,
      "hanne": 7100,
      "i3": 7101,
      "if": 7102,
      "icon": 7103,
      "itex": 7104,
      "iza": 7105,
      "jan": 7106,
      "jours": 7107,
      "kf": 7108,
      "kam": 7109,
      "lure": 7110,
      "l110": 7111,
      "lnt": 7112,
      "m10": 7113,
      "mora": 7114,
      "nw": 7115,
      "nz": 7116,
      "ose": 7117,
      "oper": 7118,
      "oled": 7119,
      "rl": 7120,
      "tf": 7121,
      "tron": 7122,
      "trou": 7123,
      "tures": 7124,
      "ub": 7125,
      "utique": 7126,
      "vap": 7127,
      "vant": 7128,
      "wide": 7129,
      "xo": 7130,
      "yu": 7131,
      "yel": 7132,
      "zar": 7133,
      "leis": 7134,
      "levi": 7135,
      "lefkas": 7136,
      "tek": 7137,
      "tetes": 7138,
      "anta": 7139,
      "dera": 7140,
      "dega": 7141,
      "detendeur": 7142,
      "enzo": 7143,
      "ints": 7144,
      "tales": 7145,
      "chande": 7146,
      "med": 7147,
      "orlan": 7148,
      "orno": 7149,
      "orchi": 7150,
      "orka": 7151,
      "sets": 7152,
      "serena": 7153,
      "maes": 7154,
      "maker": 7155,
      "masseur": 7156,
      "gear": 7157,
      "geoir": 7158,
      "gelux": 7159,
      "etc": 7160,
      "aur": 7161,
      "auri": 7162,
      "auth": 7163,
      "tico": 7164,
      "tiges": 7165,
      "tizas": 7166,
      "lima": 7167,
      "liqu": 7168,
      "lilas": 7169,
      "lipe": 7170,
      "libres": 7171,
      "0x400": 7172,
      "escarres": 7173,
      "coins": 7174,
      "sienne": 7175,
      "moov": 7176,
      "rod": 7177,
      "road": 7178,
      "rossa": 7179,
      "alba": 7180,
      "alton": 7181,
      "album": 7182,
      "nea": 7183,
      "boh": 7184,
      "boy": 7185,
      "2001": 7186,
      "vero": 7187,
      "lity": 7188,
      "lit060": 7189,
      "soon": 7190,
      "soit": 7191,
      "soda": 7192,
      "cata": 7193,
      "cava": 7194,
      "cassi": 7195,
      "bamb": 7196,
      "iel": 7197,
      "ield": 7198,
      "candi": 7199,
      "poteaux": 7200,
      "pods": 7201,
      "poign": 7202,
      "200x100": 7203,
      "boissons": 7204,
      "vian": 7205,
      "vivo": 7206,
      "cement": 7207,
      "cedre": 7208,
      "bey": 7209,
      "belo": 7210,
      "patinette": 7211,
      "plats": 7212,
      "itz": 7213,
      "parfum": 7214,
      "dam": 7215,
      "diminu": 7216,
      "tisserie": 7217,
      "129": 7218,
      "toshi": 7219,
      "502": 7220,
      "safet": 7221,
      "pisa": 7222,
      "sonde": 7223,
      "apeutique": 7224,
      "lley": 7225,
      "tapisse": 7226,
      "formes": 7227,
      "biconiques": 7228,
      "gali": 7229,
      "gaia": 7230,
      "boutis": 7231,
      "bougeoir": 7232,
      "erable": 7233,
      "doubl": 7234,
      "holm": 7235,
      "clase": 7236,
      "18w": 7237,
      "proces": 7238,
      "dom": 7239,
      "domy": 7240,
      "70h": 7241,
      "noix": 7242,
      "mandy": 7243,
      "steak": 7244,
      "multiportes": 7245,
      "multivues": 7246,
      "carac": 7247,
      "135cm": 7248,
      "ensembles": 7249,
      "120kg": 7250,
      "banne": 7251,
      "lyde": 7252,
      "keo": 7253,
      "piques": 7254,
      "455": 7255,
      "compre": 7256,
      "241": 7257,
      "240x": 7258,
      "charlotte": 7259,
      "rettes": 7260,
      "amen": 7261,
      "tendue": 7262,
      "228": 7263,
      "visible": 7264,
      "syvis": 7265,
      "monkey": 7266,
      "minions": 7267,
      "adaptation": 7268,
      "nais": 7269,
      "capu": 7270,
      "supra": 7271,
      "tranches": 7272,
      "32l": 7273,
      "absolu": 7274,
      "sha": 7275,
      "shan": 7276,
      "shala": 7277,
      "174x": 7278,
      "geneva": 7279,
      "viscotex": 7280,
      "viscorelax": 7281,
      "2x16": 7282,
      "2x90x200": 7283,
      "self": 7284,
      "cordes": 7285,
      "kaorka": 7286,
      "berga": 7287,
      "60x42": 7288,
      "21x": 7289,
      "superposition": 7290,
      "extensibles": 7291,
      "adam": 7292,
      "strata": 7293,
      "hydr": 7294,
      "bros": 7295,
      "237": 7296,
      "therapeutique": 7297,
      "tulipe": 7298,
      "glem": 7299,
      "frois": 7300,
      "633": 7301,
      "fabio": 7302,
      "netbook": 7303,
      "transparentes": 7304,
      "feutrine": 7305,
      "carrera": 7306,
      "find": 7307,
      "helmi": 7308,
      "inclines": 7309,
      "mouf": 7310,
      "zzo": 7311,
      "dorees": 7312,
      "sensor": 7313,
      "33l": 7314,
      "parafou": 7315,
      "oscil": 7316,
      "140x140": 7317,
      "joints": 7318,
      "weasy": 7319,
      "back": 7320,
      "ryg": 7321,
      "31l": 7322,
      "frili": 7323,
      "torino": 7324,
      "torchon": 7325,
      "fronceur": 7326,
      "90x51x": 7327,
      "graffi": 7328,
      "frise": 7329,
      "vani": 7330,
      "zeli": 7331,
      "napo": 7332,
      "stream": 7333,
      "track": 7334,
      "respirable": 7335,
      "commandes": 7336,
      "interieurs": 7337,
      "electrostimu": 7338,
      "blackpear": 7339,
      "chelles": 7340,
      "81x": 7341,
      "81cm": 7342,
      "application": 7343,
      "gonflage": 7344,
      "fsb": 7345,
      "61cm": 7346,
      "rayons": 7347,
      "rush": 7348,
      "200x280": 7349,
      "seychelles": 7350,
      "88cm": 7351,
      "92cm": 7352,
      "speed": 7353,
      "tarte": 7354,
      "filaires": 7355,
      "zoo": 7356,
      "hara": 7357,
      "differente": 7358,
      "100x50": 7359,
      "linahe": 7360,
      "essentielle": 7361,
      "vitrees": 7362,
      "internet": 7363,
      "350m": 7364,
      "repair": 7365,
      "parois": 7366,
      "organique": 7367,
      "oxitex": 7368,
      "140x260": 7369,
      "decoratifs": 7370,
      "illimitee": 7371,
      "musicale": 7372,
      "cookeo": 7373,
      "foyer": 7374,
      "matelassees": 7375,
      "gross": 7376,
      "sommelier": 7377,
      "90x180": 7378,
      "goodnight": 7379,
      "condenseur": 7380,
      "craie": 7381,
      "saphir": 7382,
      "55x40": 7383,
      "firmin": 7384,
      "entraine": 7385,
      "monolith": 7386,
      "pulse": 7387,
      "volts": 7388,
      "1400trs": 7389,
      "aaa": 7390,
      "astron": 7391,
      "romance": 7392,
      "digitale": 7393,
      "woody": 7394,
      "compose": 7395,
      "fouet": 7396,
      "mc70": 7397,
      "anatomi": 7398,
      "twister": 7399,
      "imperio": 7400,
      "rinker": 7401,
      "malaisi": 7402,
      "flyer": 7403,
      "kettle": 7404,
      "ramizu": 7405,
      "dynamiques": 7406,
      "aspen": 7407,
      "****": 7408,
      "caisses": 7409,
      "modern": 7410,
      "valentine": 7411,
      "cassette": 7412,
      "florent": 7413,
      "ventouses": 7414,
      "clayette": 7415,
      "isienne": 7416,
      "rameur": 7417,
      "abdominale": 7418,
      "mappe": 7419,
      "140x190x1": 7420,
      "product": 7421,
      "emaillee": 7422,
      "ignifu": 7423,
      "liberty": 7424,
      "peuplier": 7425,
      "arrosage": 7426,
      "apollo": 7427,
      "nicoletta": 7428,
      "infinity": 7429,
      "jardideco": 7430,
      "autocollant": 7431,
      "92x50x": 7432,
      "spectre": 7433,
      "suede": 7434,
      "tensions": 7435,
      "babette": 7436,
      "99x40cm": 7437,
      "citron": 7438,
      "6000k": 7439,
      "einhell": 7440,
      "munga": 7441,
      "nitro": 7442,
      "chloe": 7443,
      "christmas": 7444,
      "mandala": 7445,
      "companion": 7446,
      "saucisse": 7447,
      "smoothie": 7448,
      "scott": 7449,
      "expert": 7450,
      "synchrone": 7451,
      "tivoli": 7452,
      "nevada": 7453,
      "toscana": 7454,
      "feeric": 7455,
      "flexibilite": 7456,
      "180x85x24": 7457,
      "essorage": 7458,
      "fatmoose": 7459,
      "yellow": 7460,
      "leisure": 7461,
      "orlando": 7462,
      "authen": 7463,
      "diminution": 7464,
      "toshiba": 7465,
      "safety": 7466,
      "doublure": 7467,
      "hydrau": 7468,
      "parafoudre": 7469,
      "graffiti": 7470,
      "malaisiens": 7471,
      "1st": 7472,
      "1ms": 7473,
      "214": 7474,
      "245": 7475,
      "275": 7476,
      "324": 7477,
      "3100w": 7478,
      "3g1": 7479,
      "4s": 7480,
      "425": 7481,
      "436": 7482,
      "4ms": 7483,
      "5k": 7484,
      "545": 7485,
      "6300": 7486,
      "740": 7487,
      "770": 7488,
      "733": 7489,
      "7000w": 7490,
      "880": 7491,
      "818": 7492,
      "aba": 7493,
      "avent": 7494,
      "b2": 7495,
      "bd": 7496,
      "bm": 7497,
      "bson": 7498,
      "brou": 7499,
      "bren": 7500,
      "bliss": 7501,
      "c2": 7502,
      "caux": 7503,
      "ciere": 7504,
      "c224": 7505,
      "c221": 7506,
      "c413": 7507,
      "dil": 7508,
      "dant": 7509,
      "eda": 7510,
      "fry": 7511,
      "g6": 7512,
      "glisse": 7513,
      "hba": 7514,
      "h60": 7515,
      "hum": 7516,
      "h22": 7517,
      "h75": 7518,
      "h200cm": 7519,
      "ich": 7520,
      "iane": 7521,
      "j3": 7522,
      "jen": 7523,
      "jas": 7524,
      "jbl": 7525,
      "jbc": 7526,
      "kk": 7527,
      "kt": 7528,
      "kle": 7529,
      "kes": 7530,
      "kat": 7531,
      "l200": 7532,
      "lct": 7533,
      "l120": 7534,
      "mr": 7535,
      "nan": 7536,
      "opi": 7537,
      "pv": 7538,
      "pne": 7539,
      "qw": 7540,
      "r10": 7541,
      "r18": 7542,
      "rcher": 7543,
      "r600": 7544,
      "sg": 7545,
      "sar": 7546,
      "stables": 7547,
      "sven": 7548,
      "slide": 7549,
      "single": 7550,
      "tm": 7551,
      "trap": 7552,
      "ulos": 7553,
      "ugia": 7554,
      "v200": 7555,
      "vac": 7556,
      "wp": 7557,
      "wv": 7558,
      "xor": 7559,
      "x10": 7560,
      "lem": 7561,
      "lego": 7562,
      "repliable": 7563,
      "reci": 7564,
      "tetiere": 7565,
      "antec": 7566,
      "anio": 7567,
      "depen": 7568,
      "depoli": 7569,
      "detacha": 7570,
      "isio": 7571,
      "ouvre": 7572,
      "inf": 7573,
      "infrois": 7574,
      "lailler": 7575,
      "bleem": 7576,
      "tah": 7577,
      "tat": 7578,
      "tav": 7579,
      "tain": 7580,
      "taho": 7581,
      "tachi": 7582,
      "ching": 7583,
      "chets": 7584,
      "mee": 7585,
      "medina": 7586,
      "mastic": 7587,
      "geforce": 7588,
      "autres": 7589,
      "tim": 7590,
      "lili": 7591,
      "arr": 7592,
      "arles": 7593,
      "este": 7594,
      "lants": 7595,
      "cozy": 7596,
      "sition": 7597,
      "siphon": 7598,
      "sirene": 7599,
      "quets": 7600,
      "quart": 7601,
      "ilton": 7602,
      "illumine": 7603,
      "blanreve": 7604,
      "roe": 7605,
      "rol": 7606,
      "mite": 7607,
      "miele": 7608,
      "aline": 7609,
      "alpha": 7610,
      "albert": 7611,
      "nee": 7612,
      "nez": 7613,
      "rix": 7614,
      "rifuge": 7615,
      "bodega": 7616,
      "lol": 7617,
      "logo": 7618,
      "soie": 7619,
      "soles": 7620,
      "sogelux": 7621,
      "camouf": 7622,
      "bay": 7623,
      "baga": 7624,
      "14c": 7625,
      "conf": 7626,
      "consoles": 7627,
      "subleem": 7628,
      "chalet": 7629,
      "canaux": 7630,
      "sture": 7631,
      "stina": 7632,
      "portail": 7633,
      "poe": 7634,
      "posture": 7635,
      "cuit": 7636,
      "boisson": 7637,
      "celente": 7638,
      "belu": 7639,
      "bezen": 7640,
      "iroirs": 7641,
      "luc": 7642,
      "peva": 7643,
      "pelle": 7644,
      "dalia": 7645,
      "dian": 7646,
      "diana": 7647,
      "atures": 7648,
      "1035": 7649,
      "104x": 7650,
      "12c": 7651,
      "too": 7652,
      "505": 7653,
      "1650": 7654,
      "spendu": 7655,
      "cesar": 7656,
      "metaltex": 7657,
      "vache": 7658,
      "otta": 7659,
      "301": 7660,
      "sonore": 7661,
      "ller": 7662,
      "tonka": 7663,
      "ulous": 7664,
      "bien": 7665,
      "marble": 7666,
      "marbella": 7667,
      "margot": 7668,
      "gab": 7669,
      "perugia": 7670,
      "oradio": 7671,
      "clatronic": 7672,
      "tree": 7673,
      "18l": 7674,
      "doc": 7675,
      "dod": 7676,
      "docu": 7677,
      "doseur": 7678,
      "barrie": 7679,
      "barbara": 7680,
      "exit": 7681,
      "excelente": 7682,
      "15kg": 7683,
      "bulle": 7684,
      "mano": 7685,
      "multicuiseur": 7686,
      "multiplis": 7687,
      "commu": 7688,
      "carlo": 7689,
      "carnet": 7690,
      "carmen": 7691,
      "13l": 7692,
      "element": 7693,
      "elets": 7694,
      "0x245": 7695,
      "brush": 7696,
      "coffee": 7697,
      "plite": 7698,
      "pixel": 7699,
      "poulailler": 7700,
      "santa": 7701,
      "surchauffe": 7702,
      "25kg": 7703,
      "3500": 7704,
      "doubles": 7705,
      "serp": 7706,
      "thunder": 7707,
      "tendoir": 7708,
      "phin": 7709,
      "226": 7710,
      "rubis": 7711,
      "75h": 7712,
      "194": 7713,
      "sound": 7714,
      "primo": 7715,
      "lons": 7716,
      "montana": 7717,
      "monroe": 7718,
      "nado": 7719,
      "2700k": 7720,
      "supspendu": 7721,
      "110x1": 7722,
      "polyvalent": 7723,
      "triroirs": 7724,
      "328": 7725,
      "gener": 7726,
      "viscogel": 7727,
      "38l": 7728,
      "2x24": 7729,
      "trogir": 7730,
      "imprimees": 7731,
      "selfie": 7732,
      "pleine": 7733,
      "55l": 7734,
      "corsa": 7735,
      "kamber": 7736,
      "berber": 7737,
      "simply": 7738,
      "sunshine": 7739,
      "rometre": 7740,
      "elg": 7741,
      "jaunes": 7742,
      "abattantes": 7743,
      "plane": 7744,
      "crois": 7745,
      "fabry": 7746,
      "ecrans": 7747,
      "hitachi": 7748,
      "bettina": 7749,
      "feutre": 7750,
      "assana": 7751,
      "couvercles": 7752,
      "hai": 7753,
      "revue": 7754,
      "462": 7755,
      "tyka": 7756,
      "mortier": 7757,
      "zzz": 7758,
      "50x60": 7759,
      "80x200cm": 7760,
      "tania": 7761,
      "dermo": 7762,
      "43l": 7763,
      "70x40x1": 7764,
      "120x190cm": 7765,
      "julie": 7766,
      "120x180": 7767,
      "orial": 7768,
      "lens": 7769,
      "lent": 7770,
      "epingles": 7771,
      "garfield": 7772,
      "39cm": 7773,
      "fusil": 7774,
      "fuji": 7775,
      "mugs": 7776,
      "80x40x": 7777,
      "torche": 7778,
      "54l": 7779,
      "90x74": 7780,
      "alia": 7781,
      "alice": 7782,
      "aliza": 7783,
      "horno": 7784,
      "grav": 7785,
      "gray": 7786,
      "grain": 7787,
      "vancouver": 7788,
      "karl": 7789,
      "45x75cm": 7790,
      "louxor": 7791,
      "trotteur": 7792,
      "centrifuge": 7793,
      "mirage": 7794,
      "ecole": 7795,
      "81h": 7796,
      "skill": 7797,
      "oceaf": 7798,
      "61x": 7799,
      "theo": 7800,
      "robinets": 7801,
      "anastasia": 7802,
      "bonnets": 7803,
      "eviers": 7804,
      "fiee": 7805,
      "branco": 7806,
      "flow": 7807,
      "gonflables": 7808,
      "66l": 7809,
      "spatu": 7810,
      "zoom": 7811,
      "piquee": 7812,
      "harnais": 7813,
      "campo": 7814,
      "burto": 7815,
      "nettoyant": 7816,
      "lt1400": 7817,
      "speciale": 7818,
      "lightness": 7819,
      "telescopiques": 7820,
      "peluches": 7821,
      "royalvisco": 7822,
      "avallon": 7823,
      "annees": 7824,
      "magnet": 7825,
      "8003": 7826,
      "coupelle": 7827,
      "verticales": 7828,
      "140x250": 7829,
      "94cm": 7830,
      "snow": 7831,
      "gros": 7832,
      "acupression": 7833,
      "3000mhz": 7834,
      "rocket": 7835,
      "dualconfort": 7836,
      "ouvertes": 7837,
      "craft": 7838,
      "circulation": 7839,
      "warm": 7840,
      "sweety": 7841,
      "x70x40cm": 7842,
      "sculpte": 7843,
      "draisienne": 7844,
      "pull": 7845,
      "pulver": 7846,
      "varicook": 7847,
      "0920": 7848,
      "smoby": 7849,
      "seahorse": 7850,
      "118x": 7851,
      "225x": 7852,
      "hamilton": 7853,
      "elica": 7854,
      "ecouteur": 7855,
      "florie": 7856,
      "paillette": 7857,
      "benny": 7858,
      "arozzi": 7859,
      "dynamic": 7860,
      "brodee": 7861,
      "34x15": 7862,
      "0820": 7863,
      "curry": 7864,
      "willy": 7865,
      "tropicale": 7866,
      "144hz": 7867,
      "4000k": 7868,
      "biseaute": 7869,
      "vrir": 7870,
      "exclusif": 7871,
      "graphic": 7872,
      "persienne": 7873,
      "climatise": 7874,
      "130x60x40": 7875,
      "sophia": 7876,
      "05080": 7877,
      "scandinavia": 7878,
      "enduit": 7879,
      "lagostina": 7880,
      "stanley": 7881,
      "105x190": 7882,
      "120x30x76": 7883,
      "hippo": 7884,
      "usages": 7885,
      "amortisseur": 7886,
      "autoradio": 7887,
      "cuilleres": 7888,
      "aiguiseur": 7889,
      "aulne": 7890,
      "potager": 7891,
      "fierce": 7892,
      "amazonia": 7893,
      "georgia": 7894,
      "exercice": 7895,
      "875kg": 7896,
      "ginatex": 7897,
      "cosmos": 7898,
      "terroir": 7899,
      "skateboard": 7900,
      "rocco": 7901,
      "toslink": 7902,
      "epaisseu": 7903,
      "hygrometre": 7904,
      "coquelicot": 7905,
      "miraculous": 7906,
      "westerland": 7907,
      "daewoo": 7908,
      "toledo": 7909,
      "133x190": 7910,
      "trancheuse": 7911,
      "coaxial": 7912,
      "ribiland": 7913,
      "couchages": 7914,
      "parigi": 7915,
      "creations": 7916,
      "48400000": 7917,
      "fashions": 7918,
      "essoreuse": 7919,
      "munich": 7920,
      "remontoir": 7921,
      "mooov": 7922,
      "colonial": 7923,
      "bracelets": 7924,
      "britta": 7925,
      "effect": 7926,
      "l40xl40xh150cm": 7927,
      "izao": 7928,
      "aurora": 7929,
      "bambin": 7930,
      "processeur": 7931,
      "shannon": 7932,
      "grossissant": 7933,
      "kettlebell": 7934,
      "mappemonde": 7935,
      "140x190x13": 7936,
      "authentique": 7937,
      "pneus": 7938,
      "dependance": 7939,
      "infroissable": 7940,
      "quartz": 7941,
      "camouflage": 7942,
      "belushi": 7943,
      "kamberg": 7944,
      "centrifugeuse": 7945,
      "0cm": 7946,
      "080": 7947,
      "1a": 7948,
      "1b": 7949,
      "10x1": 7950,
      "20x1": 7951,
      "212": 7952,
      "232": 7953,
      "3g": 7954,
      "315": 7955,
      "412": 7956,
      "4kg": 7957,
      "417": 7958,
      "4ghz": 7959,
      "5ah": 7960,
      "638": 7961,
      "6ft": 7962,
      "714": 7963,
      "735": 7964,
      "7000": 7965,
      "7ghz": 7966,
      "831": 7967,
      "8gb": 7968,
      "980": 7969,
      "950w": 7970,
      "aff": 7971,
      "agn": 7972,
      "amin": 7973,
      "alar": 7974,
      "bau": 7975,
      "blas": 7976,
      "biere": 7977,
      "cg": 7978,
      "cissante": 7979,
      "crayons": 7980,
      "dp": 7981,
      "dac": 7982,
      "eme": 7983,
      "elo": 7984,
      "fb": 7985,
      "f12": 7986,
      "faux": 7987,
      "frac": 7988,
      "frig": 7989,
      "filles": 7990,
      "h4": 7991,
      "hv": 7992,
      "his": 7993,
      "hce": 7994,
      "had": 7995,
      "hms": 7996,
      "iz": 7997,
      "iki": 7998,
      "ify": 7999,
      "idun": 8000,
      "jum": 8001,
      "k2": 8002,
      "kh": 8003,
      "kil": 8004,
      "kmb": 8005,
      "lf": 8006,
      "l100": 8007,
      "lorient": 8008,
      "muse": 8009,
      "np": 8010,
      "nen": 8011,
      "nal": 8012,
      "nad": 8013,
      "ois": 8014,
      "olo": 8015,
      "owen": 8016,
      "oval": 8017,
      "p36": 8018,
      "rm": 8019,
      "rp": 8020,
      "rms": 8021,
      "s0": 8022,
      "s8": 8023,
      "sir": 8024,
      "sco": 8025,
      "spor": 8026,
      "s20": 8027,
      "spar": 8028,
      "scar": 8029,
      "tc": 8030,
      "tl": 8031,
      "tn": 8032,
      "tz": 8033,
      "tine": 8034,
      "tang": 8035,
      "tours": 8036,
      "ule": 8037,
      "umbra": 8038,
      "utah": 8039,
      "vg": 8040,
      "v50": 8041,
      "valle": 8042,
      "wpro": 8043,
      "whe": 8044,
      "xi": 8045,
      "xir": 8046,
      "xton": 8047,
      "x75": 8048,
      "y5": 8049,
      "ye": 8050,
      "yan": 8051,
      "zg": 8052,
      "leche": 8053,
      "legant": 8054,
      "legro": 8055,
      "reactif": 8056,
      "reparation": 8057,
      "delot": 8058,
      "delave": 8059,
      "onic": 8060,
      "ouate": 8061,
      "eng": 8062,
      "enco": 8063,
      "encre": 8064,
      "enrico": 8065,
      "encart": 8066,
      "iny": 8067,
      "incan": 8068,
      "inga": 8069,
      "laure": 8070,
      "tam": 8071,
      "tas": 8072,
      "taux": 8073,
      "chants": 8074,
      "megh": 8075,
      "medel": 8076,
      "ors": 8077,
      "orbella": 8078,
      "separ": 8079,
      "seaux": 8080,
      "may": 8081,
      "mach": 8082,
      "malin": 8083,
      "audi": 8084,
      "auchoirs": 8085,
      "tiger": 8086,
      "livo": 8087,
      "lios": 8088,
      "arche": 8089,
      "004": 8090,
      "lanzo": 8091,
      "cow": 8092,
      "comet": 8093,
      "cotillon": 8094,
      "siber": 8095,
      "quil": 8096,
      "quba": 8097,
      "quettes": 8098,
      "mol": 8099,
      "mood": 8100,
      "rom": 8101,
      "rot": 8102,
      "roll": 8103,
      "romy": 8104,
      "rotissoire": 8105,
      "mie": 8106,
      "mit": 8107,
      "ald": 8108,
      "als": 8109,
      "alpa": 8110,
      "neur": 8111,
      "river": 8112,
      "apad": 8113,
      "bots": 8114,
      "boom": 8115,
      "bols": 8116,
      "lox": 8117,
      "logi": 8118,
      "lo25": 8119,
      "mateur": 8120,
      "90w": 8121,
      "caille": 8122,
      "cash": 8123,
      "cabin": 8124,
      "couch": 8125,
      "146x": 8126,
      "149cm": 8127,
      "coni": 8128,
      "confer": 8129,
      "suv": 8130,
      "chassis": 8131,
      "cano": 8132,
      "cante": 8133,
      "str": 8134,
      "stron": 8135,
      "poisson": 8136,
      "pommes": 8137,
      "20b": 8138,
      "cubi": 8139,
      "cussion": 8140,
      "vig": 8141,
      "vien": 8142,
      "vili": 8143,
      "violine": 8144,
      "pourpre": 8145,
      "cey": 8146,
      "bequille": 8147,
      "pablo": 8148,
      "patisserie": 8149,
      "rai": 8150,
      "salsa": 8151,
      "chemin": 8152,
      "check": 8153,
      "lun": 8154,
      "lund": 8155,
      "lucky": 8156,
      "pedic": 8157,
      "peonie": 8158,
      "lotus": 8159,
      "dif": 8160,
      "div": 8161,
      "dier": 8162,
      "atlas": 8163,
      "atsu": 8164,
      "atto": 8165,
      "401": 8166,
      "80h": 8167,
      "modeles": 8168,
      "1219": 8169,
      "50h": 8170,
      "165cm": 8171,
      "niag": 8172,
      "sai": 8173,
      "saint": 8174,
      "vabo": 8175,
      "gnie": 8176,
      "302": 8177,
      "303": 8178,
      "305cm": 8179,
      "tonneau": 8180,
      "fiche": 8181,
      "marco": 8182,
      "gare": 8183,
      "perro": 8184,
      "perles": 8185,
      "percussion": 8186,
      "fonds": 8187,
      "gos": 8188,
      "hook": 8189,
      "claire": 8190,
      "clara": 8191,
      "clark": 8192,
      "18x": 8193,
      "doo": 8194,
      "barbie": 8195,
      "letti": 8196,
      "angles": 8197,
      "iteau": 8198,
      "hauck": 8199,
      "nombre": 8200,
      "expan": 8201,
      "excentre": 8202,
      "150x1": 8203,
      "152x": 8204,
      "150x100": 8205,
      "portee": 8206,
      "bug": 8207,
      "many": 8208,
      "mance": 8209,
      "manches": 8210,
      "miner": 8211,
      "confortime": 8212,
      "multizones": 8213,
      "multicouleurs": 8214,
      "caro": 8215,
      "colora": 8216,
      "velvet": 8217,
      "120g": 8218,
      "euses": 8219,
      "adour": 8220,
      "adler": 8221,
      "inotek": 8222,
      "rapido": 8223,
      "regul": 8224,
      "renfor": 8225,
      "180h": 8226,
      "246": 8227,
      "24h": 8228,
      "bresili": 8229,
      "serrage": 8230,
      "thin": 8231,
      "am4": 8232,
      "tenus": 8233,
      "viscor": 8234,
      "jary": 8235,
      "microfibres": 8236,
      "colorway": 8237,
      "oneplus": 8238,
      "agfa": 8239,
      "soudage": 8240,
      "syl": 8241,
      "minibar": 8242,
      "adapter": 8243,
      "union": 8244,
      "antibacterien": 8245,
      "kos": 8246,
      "unis": 8247,
      "5xla": 8248,
      "paci": 8249,
      "11w": 8250,
      "11cm": 8251,
      "felix": 8252,
      "industrielles": 8253,
      "touquet": 8254,
      "travel": 8255,
      "chilienne": 8256,
      "abst": 8257,
      "ab1098": 8258,
      "igen": 8259,
      "telecommandes": 8260,
      "transportable": 8261,
      "171": 8262,
      "17cm": 8263,
      "366": 8264,
      "36l": 8265,
      "icaire": 8266,
      "lista": 8267,
      "lisbonne": 8268,
      "2x100x200": 8269,
      "fournis": 8270,
      "655": 8271,
      "76h": 8272,
      "28w": 8273,
      "puissant": 8274,
      "olga": 8275,
      "42db": 8276,
      "lampa": 8277,
      "60x70": 8278,
      "60x30x": 8279,
      "60x35x": 8280,
      "21s": 8281,
      "simpli": 8282,
      "huiles": 8283,
      "220v": 8284,
      "superposable": 8285,
      "elda": 8286,
      "elga": 8287,
      "elise": 8288,
      "tiny": 8289,
      "hypo": 8290,
      "jeunes": 8291,
      "psg": 8292,
      "broches": 8293,
      "239": 8294,
      "chromes": 8295,
      "thermal": 8296,
      "481010": 8297,
      "croco": 8298,
      "netflix": 8299,
      "trip": 8300,
      "tribal": 8301,
      "venice": 8302,
      "carreau": 8303,
      "airpur": 8304,
      "mentaire": 8305,
      "petites": 8306,
      "gauf": 8307,
      "stilista": 8308,
      "gu10": 8309,
      "bottes": 8310,
      "64cm": 8311,
      "50xh": 8312,
      "120x60cm": 8313,
      "tano": 8314,
      "senso": 8315,
      "70x70": 8316,
      "30x30cm": 8317,
      "juno": 8318,
      "judy": 8319,
      "34l": 8320,
      "37a": 8321,
      "germany": 8322,
      "balrod": 8323,
      "thermos": 8324,
      "thermoregul": 8325,
      "140x70x": 8326,
      "140x77": 8327,
      "gybson": 8328,
      "smartphones": 8329,
      "98cm": 8330,
      "98x70x40cm": 8331,
      "opy": 8332,
      "pivotants": 8333,
      "garnier": 8334,
      "presen": 8335,
      "passoire": 8336,
      "clone": 8337,
      "muda": 8338,
      "77cm": 8339,
      "cherry": 8340,
      "80x80cm": 8341,
      "frite": 8342,
      "offi": 8343,
      "85l": 8344,
      "brosses": 8345,
      "90x60": 8346,
      "90x35x": 8347,
      "90x77x50": 8348,
      "mettes": 8349,
      "47l": 8350,
      "47db": 8351,
      "250cm": 8352,
      "furniture": 8353,
      "chariots": 8354,
      "45x30": 8355,
      "chiffres": 8356,
      "stores": 8357,
      "babyphone": 8358,
      "babyfoot": 8359,
      "160x60": 8360,
      "500g": 8361,
      "liaison": 8362,
      "600g": 8363,
      "oceah": 8364,
      "67l": 8365,
      "53l": 8366,
      "decoratives": 8367,
      "velos": 8368,
      "97cm": 8369,
      "3x3": 8370,
      "positano": 8371,
      "xh70": 8372,
      "appareils": 8373,
      "plumettes": 8374,
      "doro": 8375,
      "essenza": 8376,
      "compagnie": 8377,
      "certifiee": 8378,
      "87cm": 8379,
      "emplace": 8380,
      "pains": 8381,
      "ethnic": 8382,
      "180x80": 8383,
      "180x80x35": 8384,
      "natura": 8385,
      "universal": 8386,
      "akr": 8387,
      "hardelot": 8388,
      "purple": 8389,
      "alimentaire": 8390,
      "91x": 8391,
      "minutes": 8392,
      "86cm": 8393,
      "8690": 8394,
      "masterchef": 8395,
      "marion": 8396,
      "cente": 8397,
      "camden": 8398,
      "ip20": 8399,
      "musculaire": 8400,
      "mezzo": 8401,
      "repassage": 8402,
      "hall": 8403,
      "ponce": 8404,
      "leopard": 8405,
      "anneau": 8406,
      "pompadour": 8407,
      "valentina": 8408,
      "drive": 8409,
      "edgar": 8410,
      "embo": 8411,
      "blocs": 8412,
      "ahf": 8413,
      "sweden": 8414,
      "ardoisee": 8415,
      "goodman": 8416,
      "manuelle": 8417,
      "cagettes": 8418,
      "lumina": 8419,
      "flamant": 8420,
      "107x": 8421,
      "frais": 8422,
      "pressions": 8423,
      "palma": 8424,
      "dolly": 8425,
      "dolphin": 8426,
      "milza": 8427,
      "glaciere": 8428,
      "riella": 8429,
      "monofonction": 8430,
      "variateur": 8431,
      "phonique": 8432,
      "shimano": 8433,
      "shiatsu": 8434,
      "aerolatex": 8435,
      "solaires": 8436,
      "astro": 8437,
      "arena": 8438,
      "composition": 8439,
      "dwf": 8440,
      "olivia": 8441,
      "zipee": 8442,
      "demonte": 8443,
      "elixir": 8444,
      "ew6": 8445,
      "embout": 8446,
      "roomba": 8447,
      "paillettes": 8448,
      "117x": 8449,
      "haltere": 8450,
      "rsquo": 8451,
      "magestic": 8452,
      "ajouree": 8453,
      "quick": 8454,
      "nocives": 8455,
      "bordures": 8456,
      "snack": 8457,
      "flechettes": 8458,
      "connectland": 8459,
      "ariel": 8460,
      "substan": 8461,
      "irobot": 8462,
      "incurvee": 8463,
      "solid": 8464,
      "clayettes": 8465,
      "assemble": 8466,
      "tiago": 8467,
      "traditionnel": 8468,
      "enjoyify": 8469,
      "ridge": 8470,
      "57x115cm": 8471,
      "tournebroche": 8472,
      "hexagone": 8473,
      "sangles": 8474,
      "produit": 8475,
      "agrume": 8476,
      "emoji": 8477,
      "98x80x40": 8478,
      "recouvrir": 8479,
      "chambr": 8480,
      "chambray": 8481,
      "jessy": 8482,
      "meliconi": 8483,
      "boucler": 8484,
      "stepper": 8485,
      "multis": 8486,
      "sidewalk": 8487,
      "moscow": 8488,
      "embauchoirs": 8489,
      "rainbow": 8490,
      "bialetti": 8491,
      "clearness": 8492,
      "ethanol": 8493,
      "hilda": 8494,
      "allume": 8495,
      "radeon": 8496,
      "provence": 8497,
      "dosettes": 8498,
      "supplementa": 8499,
      "bek8690": 8500,
      "dakari": 8501,
      "fournies": 8502,
      "gueridon": 8503,
      "iphone12prom": 8504,
      "nils": 8505,
      "licence": 8506,
      "80163619": 8507,
      "joueurs": 8508,
      "pyjama": 8509,
      "connexion": 8510,
      "repeteur": 8511,
      "tajine": 8512,
      "training": 8513,
      "hyppoallergenique": 8514,
      "sensitive": 8515,
      "deplimousse": 8516,
      "tampon": 8517,
      "chapiteau": 8518,
      "melya": 8519,
      "apothicaire": 8520,
      "odyssee": 8521,
      "chandelier": 8522,
      "orchidee": 8523,
      "liquide": 8524,
      "poignet": 8525,
      "compresseur": 8526,
      "vaniva": 8527,
      "entrainement": 8528,
      "astronaute": 8529,
      "ignifugo": 8530,
      "73325": 8531,
      "hummer": 8532,
      "detachable": 8533,
      "documents": 8534,
      "commutateur": 8535,
      "thunderbolt": 8536,
      "croisillon": 8537,
      "90x74x50": 8538,
      "amincissante": 8539,
      "alarme": 8540,
      "valley": 8541,
      "meghan": 8542,
      "livoo": 8543,
      "cashmere": 8544,
      "cabinet": 8545,
      "strong": 8546,
      "niagara": 8547,
      "viscoroll": 8548,
      "ab10986": 8549,
      "140x77x30": 8550,
      "furniturer": 8551,
      "substances": 8552,
      "2pcs": 8553,
      "2300": 8554,
      "280cm": 8555,
      "236x": 8556,
      "2100w": 8557,
      "3z": 8558,
      "319": 8559,
      "3200w": 8560,
      "4w": 8561,
      "570": 8562,
      "533": 8563,
      "550w": 8564,
      "6v": 8565,
      "622": 8566,
      "626": 8567,
      "636": 8568,
      "623": 8569,
      "7200": 8570,
      "7mm": 8571,
      "819": 8572,
      "859": 8573,
      "914": 8574,
      "913": 8575,
      "9mm": 8576,
      "a50": 8577,
      "a73": 8578,
      "a21s": 8579,
      "bg": 8580,
      "bpa": 8581,
      "bpi": 8582,
      "bher": 8583,
      "bfl": 8584,
      "cpu": 8585,
      "c000": 8586,
      "dran": 8587,
      "dvi": 8588,
      "dpe": 8589,
      "d30": 8590,
      "donne": 8591,
      "dante": 8592,
      "d208": 8593,
      "dots": 8594,
      "eo": 8595,
      "eer": 8596,
      "echa": 8597,
      "e54": 8598,
      "faro": 8599,
      "hang": 8600,
      "hano": 8601,
      "h102": 8602,
      "histo": 8603,
      "ico": 8604,
      "ivre": 8605,
      "ivolu": 8606,
      "j6": 8607,
      "jane": 8608,
      "k7": 8609,
      "kj": 8610,
      "kri": 8611,
      "kie": 8612,
      "kris": 8613,
      "lx": 8614,
      "lte": 8615,
      "lton": 8616,
      "lora": 8617,
      "l70": 8618,
      "lph": 8619,
      "l55": 8620,
      "l60x": 8621,
      "l120cm": 8622,
      "lwd": 8623,
      "mille": 8624,
      "mera": 8625,
      "n0": 8626,
      "nl": 8627,
      "nm": 8628,
      "nir": 8629,
      "ngs": 8630,
      "oo": 8631,
      "ota": 8632,
      "oma": 8633,
      "oie": 8634,
      "px": 8635,
      "pape": 8636,
      "plots": 8637,
      "rd": 8638,
      "rtv": 8639,
      "sche": 8640,
      "she": 8641,
      "s55": 8642,
      "slyde": 8643,
      "tles": 8644,
      "uw": 8645,
      "uhf": 8646,
      "vint": 8647,
      "vhf": 8648,
      "wes": 8649,
      "wit": 8650,
      "wmf": 8651,
      "wlens": 8652,
      "xa": 8653,
      "xte": 8654,
      "xos": 8655,
      "zap": 8656,
      "zberg": 8657,
      "levier": 8658,
      "leandre": 8659,
      "reb": 8660,
      "rebelle": 8661,
      "remy": 8662,
      "reiki": 8663,
      "tedy": 8664,
      "telier": 8665,
      "tequi": 8666,
      "any": 8667,
      "ances": 8668,
      "ony": 8669,
      "ente": 8670,
      "inni": 8671,
      "insec": 8672,
      "ero": 8673,
      "lak": 8674,
      "lap": 8675,
      "tai": 8676,
      "tabo": 8677,
      "taigne": 8678,
      "iron": 8679,
      "chr": 8680,
      "chan": 8681,
      "chter": 8682,
      "chia": 8683,
      "melles": 8684,
      "meteo": 8685,
      "message": 8686,
      "orme": 8687,
      "sere": 8688,
      "sepa": 8689,
      "sechage": 8690,
      "segur": 8691,
      "mada": 8692,
      "maste": 8693,
      "mahe": 8694,
      "maddy": 8695,
      "gere": 8696,
      "tial": 8697,
      "tika": 8698,
      "tibor": 8699,
      "lime": 8700,
      "live": 8701,
      "lille": 8702,
      "livio": 8703,
      "lilly": 8704,
      "limitee": 8705,
      "arri": 8706,
      "arman": 8707,
      "arrond": 8708,
      "esta": 8709,
      "espresso": 8710,
      "009": 8711,
      "lane": 8712,
      "cots": 8713,
      "quis": 8714,
      "quise": 8715,
      "quence": 8716,
      "move": 8717,
      "rosy": 8718,
      "robots": 8719,
      "queues": 8720,
      "mid": 8721,
      "mig": 8722,
      "alte": 8723,
      "alta": 8724,
      "alth": 8725,
      "alya": 8726,
      "grass": 8727,
      "grilles": 8728,
      "ric": 8729,
      "rip": 8730,
      "boxe": 8731,
      "bocaux": 8732,
      "logan": 8733,
      "lorea": 8734,
      "2003": 8735,
      "vergon": 8736,
      "mper": 8737,
      "aca": 8738,
      "soho": 8739,
      "cake": 8740,
      "calais": 8741,
      "bale": 8742,
      "bada": 8743,
      "baquet": 8744,
      "couc": 8745,
      "coup": 8746,
      "couvert": 8747,
      "couteurs": 8748,
      "140x100": 8749,
      "sued": 8750,
      "summer": 8751,
      "chaton": 8752,
      "chats": 8753,
      "chateau": 8754,
      "chamber": 8755,
      "rang": 8756,
      "602": 8757,
      "60db": 8758,
      "60hz": 8759,
      "cannes": 8760,
      "porta": 8761,
      "portables": 8762,
      "poke": 8763,
      "poteau": 8764,
      "pochettes": 8765,
      "poivre": 8766,
      "2014": 8767,
      "2012": 8768,
      "20kg": 8769,
      "204l": 8770,
      "206l": 8771,
      "cup": 8772,
      "vitr": 8773,
      "viking": 8774,
      "cea": 8775,
      "cedes": 8776,
      "cell": 8777,
      "celexon": 8778,
      "bean": 8779,
      "bear": 8780,
      "pado": 8781,
      "pavina": 8782,
      "rama": 8783,
      "rache": 8784,
      "rabb": 8785,
      "ssoir": 8786,
      "lub": 8787,
      "lucia": 8788,
      "lunette": 8789,
      "lunettes": 8790,
      "pelouse": 8791,
      "dali": 8792,
      "damier": 8793,
      "damia": 8794,
      "diy": 8795,
      "dima": 8796,
      "digit": 8797,
      "attaches": 8798,
      "400x400": 8799,
      "tomi": 8800,
      "tolet": 8801,
      "toska": 8802,
      "tommy": 8803,
      "503": 8804,
      "504": 8805,
      "sps": 8806,
      "duck": 8807,
      "dusk": 8808,
      "dustin": 8809,
      "saona": 8810,
      "saliere": 8811,
      "savane": 8812,
      "sahara": 8813,
      "gno": 8814,
      "gnon": 8815,
      "pistolet": 8816,
      "ronfle": 8817,
      "ficelle": 8818,
      "linq": 8819,
      "linda": 8820,
      "marra": 8821,
      "martele": 8822,
      "marsel": 8823,
      "marina": 8824,
      "marcel": 8825,
      "marquise": 8826,
      "gae": 8827,
      "gabby": 8828,
      "hod": 8829,
      "hotellerie": 8830,
      "claas": 8831,
      "18m": 8832,
      "1820": 8833,
      "doh": 8834,
      "dome": 8835,
      "domea": 8836,
      "baril": 8837,
      "705": 8838,
      "70b": 8839,
      "itement": 8840,
      "158cm": 8841,
      "bubble": 8842,
      "manoir": 8843,
      "heures": 8844,
      "carino": 8845,
      "cardia": 8846,
      "carame": 8847,
      "1380w": 8848,
      "elementa": 8849,
      "fermee": 8850,
      "natti": 8851,
      "gigi": 8852,
      "band": 8853,
      "bante": 8854,
      "lyy": 8855,
      "voie": 8856,
      "inovalley": 8857,
      "pient": 8858,
      "piatto": 8859,
      "resserre": 8860,
      "poussoir": 8861,
      "contempo": 8862,
      "surround": 8863,
      "portland": 8864,
      "race": 8865,
      "ters": 8866,
      "regla": 8867,
      "354": 8868,
      "3500w": 8869,
      "xelles": 8870,
      "242": 8871,
      "244": 8872,
      "248": 8873,
      "break": 8874,
      "charnie": 8875,
      "thon": 8876,
      "amou": 8877,
      "phiris": 8878,
      "ganse": 8879,
      "runo": 8880,
      "ruhr": 8881,
      "russes": 8882,
      "microsd": 8883,
      "756": 8884,
      "7500w": 8885,
      "oney": 8886,
      "chausson": 8887,
      "chaussons": 8888,
      "195cm": 8889,
      "desher": 8890,
      "atmosphere": 8891,
      "rectangulaires": 8892,
      "sym": 8893,
      "ecd": 8894,
      "miniboss": 8895,
      "blush": 8896,
      "navy": 8897,
      "naxos": 8898,
      "namaste": 8899,
      "kota": 8900,
      "kost": 8901,
      "kool": 8902,
      "antevia": 8903,
      "150w": 8904,
      "573": 8905,
      "polys": 8906,
      "chiens": 8907,
      "3220": 8908,
      "abl": 8909,
      "shiny": 8910,
      "genie": 8911,
      "viscose": 8912,
      "viscographene": 8913,
      "3650w": 8914,
      "merlin": 8915,
      "mercedes": 8916,
      "bastille": 8917,
      "minea": 8918,
      "disc": 8919,
      "fournie": 8920,
      "fourchettes": 8921,
      "stabil": 8922,
      "6500": 8923,
      "65db": 8924,
      "40x30": 8925,
      "40x30x1": 8926,
      "40x57cm": 8927,
      "282": 8928,
      "artic": 8929,
      "553": 8930,
      "55w": 8931,
      "5500k": 8932,
      "pune": 8933,
      "corn": 8934,
      "ergonomiquee": 8935,
      "penh": 8936,
      "60x30x1": 8937,
      "60x77x40": 8938,
      "sunny": 8939,
      "sundar": 8940,
      "oek": 8941,
      "elton": 8942,
      "hyper": 8943,
      "jeune": 8944,
      "ideale": 8945,
      "23x": 8946,
      "230x2": 8947,
      "2300w": 8948,
      "chromebook": 8949,
      "print": 8950,
      "tune": 8951,
      "ghet": 8952,
      "decodeur": 8953,
      "48200": 8954,
      "byte": 8955,
      "fair": 8956,
      "faire": 8957,
      "fast": 8958,
      "tricycle": 8959,
      "dulce": 8960,
      "betty": 8961,
      "cyclone": 8962,
      "fines": 8963,
      "mesko": 8964,
      "havane": 8965,
      "capitole": 8966,
      "461": 8967,
      "4600w": 8968,
      "moun": 8969,
      "mouchoirs": 8970,
      "guzz": 8971,
      "dantes": 8972,
      "dandy": 8973,
      "zzy": 8974,
      "44l": 8975,
      "octa": 8976,
      "120x70cm": 8977,
      "ilight": 8978,
      "premier": 8979,
      "justin": 8980,
      "serviteur": 8981,
      "orion": 8982,
      "papiers": 8983,
      "lexi": 8984,
      "eplu": 8985,
      "52l": 8986,
      "wendy": 8987,
      "optis": 8988,
      "cercles": 8989,
      "bacio": 8990,
      "presario": 8991,
      "allergique": 8992,
      "74cm": 8993,
      "yacht": 8994,
      "kikka": 8995,
      "80x60x": 8996,
      "80x36x75": 8997,
      "frire": 8998,
      "frien": 8999,
      "frida": 9000,
      "851": 9001,
      "85h": 9002,
      "90x60cm": 9003,
      "donkey": 9004,
      "47cm": 9005,
      "vantage": 9006,
      "sables": 9007,
      "ultrabook": 9008,
      "kars": 9009,
      "traces": 9010,
      "tracky": 9011,
      "45x40": 9012,
      "45x75": 9013,
      "lavabos": 9014,
      "loup": 9015,
      "mira": 9016,
      "mirr": 9017,
      "130l": 9018,
      "liebher": 9019,
      "brava": 9020,
      "duronic": 9021,
      "49x": 9022,
      "500ml": 9023,
      "bull": 9024,
      "workforce": 9025,
      "herzberg": 9026,
      "gonflant": 9027,
      "ecrue": 9028,
      "600m": 9029,
      "vieill": 9030,
      "extravisco": 9031,
      "brico": 9032,
      "brice": 9033,
      "brixton": 9034,
      "silk": 9035,
      "jetables": 9036,
      "blox": 9037,
      "bloomy": 9038,
      "pratiques": 9039,
      "violetanio": 9040,
      "3x4": 9041,
      "71x": 9042,
      "close": 9043,
      "flore": 9044,
      "flocons": 9045,
      "62cm": 9046,
      "geometriques": 9047,
      "livorno": 9048,
      "fixy": 9049,
      "memoryplus": 9050,
      "paravents": 9051,
      "84cm": 9052,
      "terraillon": 9053,
      "stockholm": 9054,
      "levebre": 9055,
      "akz": 9056,
      "silvery": 9057,
      "campagn": 9058,
      "dvb": 9059,
      "175x": 9060,
      "burger": 9061,
      "ltc": 9062,
      "optimal": 9063,
      "celtique": 9064,
      "1200t": 9065,
      "cottage": 9066,
      "102cm": 9067,
      "flori": 9068,
      "135x77x": 9069,
      "ip68": 9070,
      "galino": 9071,
      "sc300": 9072,
      "85x185cm": 9073,
      "frequence": 9074,
      "select": 9075,
      "bambo": 9076,
      "yoghi": 9077,
      "yoopi": 9078,
      "pureness": 9079,
      "bruce": 9080,
      "bruxelles": 9081,
      "ladelph": 9082,
      "programmateur": 9083,
      "oxigen": 9084,
      "kenza": 9085,
      "65x65cm": 9086,
      "princesses": 9087,
      "90x120": 9088,
      "90x150": 9089,
      "lumineuses": 9090,
      "flame": 9091,
      "flammes": 9092,
      "130x190cm": 9093,
      "titane": 9094,
      "frame": 9095,
      "temperatures": 9096,
      "obg": 9097,
      "55x42": 9098,
      "sweethome": 9099,
      "evasion": 9100,
      "glacier": 9101,
      "activex": 9102,
      "113cm": 9103,
      "pulsee": 9104,
      "137x": 9105,
      "dessins": 9106,
      "seaford": 9107,
      "seagrass": 9108,
      "volve": 9109,
      "petrol": 9110,
      "horizontales": 9111,
      "meditation": 9112,
      "114x": 9113,
      "cellulaire": 9114,
      "200x50x76": 9115,
      "olive": 9116,
      "xla23": 9117,
      "hygiena": 9118,
      "ecoute": 9119,
      "quadro": 9120,
      "fantasma": 9121,
      "cinq": 9122,
      "plongeur": 9123,
      "paillete": 9124,
      "150x50": 9125,
      "150x50x": 9126,
      "amplifiee": 9127,
      "plastifie": 9128,
      "smv": 9129,
      "quiet": 9130,
      "filtrante": 9131,
      "figurines": 9132,
      "dinosau": 9133,
      "lingot": 9134,
      "lington": 9135,
      "rafraich": 9136,
      "organiseurs": 9137,
      "encadrement": 9138,
      "130x170": 9139,
      "reglages": 9140,
      "mouvements": 9141,
      "thermoregulateur": 9142,
      "yaourt": 9143,
      "80x24x": 9144,
      "solicast": 9145,
      "assortis": 9146,
      "brioso": 9147,
      "lamelles": 9148,
      "bodyform": 9149,
      "faudage": 9150,
      "fiskars": 9151,
      "bianca": 9152,
      "gigaset": 9153,
      "gigabyte": 9154,
      "120x30x35": 9155,
      "c318": 9156,
      "ladybug": 9157,
      "appren": 9158,
      "solaro": 9159,
      "domoclip": 9160,
      "98x80x40cm": 9161,
      "fluo": 9162,
      "fluff": 9163,
      "zr00": 9164,
      "zr90": 9165,
      "taurus": 9166,
      "florale": 9167,
      "apollon": 9168,
      "saladier": 9169,
      "volato": 9170,
      "kraft": 9171,
      "jardipolys": 9172,
      "feuillages": 9173,
      "amana": 9174,
      "folke": 9175,
      "owls": 9176,
      "panto": 9177,
      "rikke": 9178,
      "120x60x75": 9179,
      "extreme": 9180,
      "extremement": 9181,
      "exercices": 9182,
      "recettes": 9183,
      "allumage": 9184,
      "124x85x77": 9185,
      "180x180": 9186,
      "dosette": 9187,
      "supplementaire": 9188,
      "avion": 9189,
      "lourd": 9190,
      "platinum": 9191,
      "ergonomiqu": 9192,
      "philippe": 9193,
      "signature": 9194,
      "cavist": 9195,
      "paysage": 9196,
      "bonbonniere": 9197,
      "familiale": 9198,
      "majestad": 9199,
      "suzie": 9200,
      "exotiques": 9201,
      "philadelph": 9202,
      "refresh": 9203,
      "160x80x75": 9204,
      "glamour": 9205,
      "directorial": 9206,
      "equipement": 9207,
      "icytech": 9208,
      "baguettes": 9209,
      "convient": 9210,
      "performance": 9211,
      "pivotable": 9212,
      "5x60x24": 9213,
      "venezia": 9214,
      "africa": 9215,
      "levitation": 9216,
      "maestro": 9217,
      "viansola": 9218,
      "vivobook": 9219,
      "amenage": 9220,
      "supratex": 9221,
      "174x60x30": 9222,
      "bergamo": 9223,
      "napoles": 9224,
      "essentielles": 9225,
      "anatomiqu": 9226,
      "recipient": 9227,
      "poeles": 9228,
      "carlota": 9229,
      "70x40x121": 9230,
      "80x40x75": 9231,
      "spatule": 9232,
      "pulverisateur": 9233,
      "separable": 9234,
      "machines": 9235,
      "lo25xla": 9236,
      "lunch": 9237,
      "expanse": 9238,
      "mineral": 9239,
      "bresilien": 9240,
      "presentation": 9241,
      "oceahc": 9242,
      "emplacements": 9243,
      "echafaudage": 9244,
      "ivolum": 9245,
      "kriens": 9246,
      "nirvana": 9247,
      "tequila": 9248,
      "separes": 9249,
      "badabulle": 9250,
      "suedine": 9251,
      "chambery": 9252,
      "vitrines": 9253,
      "rachele": 9254,
      "rabbit": 9255,
      "ronflement": 9256,
      "marsell": 9257,
      "cardiaque": 9258,
      "caramel": 9259,
      "elementary": 9260,
      "charnieres": 9261,
      "koolstar": 9262,
      "guzzini": 9263,
      "liebherr": 9264,
      "vieillissement": 9265,
      "campagnard": 9266,
      "philadelphia": 9267,
      "012": 9268,
      "0mm": 9269,
      "056": 9270,
      "0500": 9271,
      "0400": 9272,
      "1g": 9273,
      "2t": 9274,
      "2v": 9275,
      "215": 9276,
      "2gb": 9277,
      "235cm": 9278,
      "3b": 9279,
      "314": 9280,
      "3go": 9281,
      "345": 9282,
      "325": 9283,
      "3xe": 9284,
      "338": 9285,
      "348": 9286,
      "4d": 9287,
      "4h": 9288,
      "4v": 9289,
      "477": 9290,
      "450w": 9291,
      "5s": 9292,
      "532": 9293,
      "50x100": 9294,
      "6200": 9295,
      "612": 9296,
      "676": 9297,
      "6230": 9298,
      "650w": 9299,
      "790": 9300,
      "730": 9301,
      "70x100": 9302,
      "8h": 9303,
      "8200": 9304,
      "820": 9305,
      "82x": 9306,
      "84x": 9307,
      "8000w": 9308,
      "940": 9309,
      "970": 9310,
      "95l": 9311,
      "_2": 9312,
      "a7": 9313,
      "aw": 9314,
      "ares": 9315,
      "ameuble": 9316,
      "ache": 9317,
      "a40": 9318,
      "amber": 9319,
      "bp": 9320,
      "bier": 9321,
      "buil": 9322,
      "cq": 9323,
      "cte": 9324,
      "cta": 9325,
      "cape": 9326,
      "c18": 9327,
      "cise": 9328,
      "cino": 9329,
      "cru": 9330,
      "cina": 9331,
      "crush": 9332,
      "d1": 9333,
      "dine": 9334,
      "dda": 9335,
      "d80": 9336,
      "d35": 9337,
      "drage": 9338,
      "eh": 9339,
      "e64": 9340,
      "ewt": 9341,
      "edel": 9342,
      "f100": 9343,
      "f01": 9344,
      "fht": 9345,
      "gx": 9346,
      "gta": 9347,
      "gum": 9348,
      "goth": 9349,
      "gari": 9350,
      "girl": 9351,
      "gout": 9352,
      "gourde": 9353,
      "gpl": 9354,
      "h10": 9355,
      "h50": 9356,
      "hton": 9357,
      "hus": 9358,
      "hangu": 9359,
      "hun": 9360,
      "h76": 9361,
      "h33": 9362,
      "h54": 9363,
      "h70cm": 9364,
      "ixe": 9365,
      "ibra": 9366,
      "ifier": 9367,
      "kc": 9368,
      "kor": 9369,
      "kent": 9370,
      "kpa": 9371,
      "klu": 9372,
      "krap": 9373,
      "k35": 9374,
      "kens": 9375,
      "kano": 9376,
      "klara": 9377,
      "l50": 9378,
      "lga": 9379,
      "ltv": 9380,
      "l180": 9381,
      "l60cm": 9382,
      "l90cm": 9383,
      "l41": 9384,
      "l312": 9385,
      "mma": 9386,
      "nx": 9387,
      "nny": 9388,
      "olu": 9389,
      "ombre": 9390,
      "oft": 9391,
      "pz": 9392,
      "ppo": 9393,
      "pper": 9394,
      "pls": 9395,
      "p92": 9396,
      "ql": 9397,
      "r8": 9398,
      "r290": 9399,
      "sx": 9400,
      "sis": 9401,
      "sent": 9402,
      "scre": 9403,
      "shel": 9404,
      "t2": 9405,
      "t5": 9406,
      "t6": 9407,
      "t8": 9408,
      "tum": 9409,
[...]
